{
  "version": "1.0",
  "truncation": null,
  "padding": null,
  "added_tokens": [
    {
      "id": 0,
      "content": "<unk>",
      "single_word": false,
      "lstrip": false,
      "rstrip": false,
      "normalized": false,
      "special": true
    },
    {
      "id": 1,
      "content": "<|endoftext|>",
      "single_word": false,
      "lstrip": false,
      "rstrip": false,
      "normalized": false,
      "special": true
    },
    {
      "id": 2,
      "content": "<|pad|>",
      "single_word": false,
      "lstrip": false,
      "rstrip": false,
      "normalized": false,
      "special": true
    }
  ],
  "normalizer": null,
  "pre_tokenizer": {
    "type": "ByteLevel",
    "add_prefix_space": false,
    "trim_offsets": true,
    "use_regex": true
  },
  "post_processor": null,
  "decoder": {
    "type": "ByteLevel",
    "add_prefix_space": true,
    "trim_offsets": true,
    "use_regex": true
  },
  "model": {
    "type": "BPE",
    "dropout": null,
    "unk_token": "<unk>",
    "continuing_subword_prefix": null,
    "end_of_word_suffix": null,
    "fuse_unk": false,
    "byte_fallback": false,
    "ignore_merges": false,
    "vocab": {
      "<unk>": 0,
      "<|endoftext|>": 1,
      "<|pad|>": 2,
      "!": 3,
      "\"": 4,
      "#": 5,
      "$": 6,
      "%": 7,
      "&": 8,
      "'": 9,
      "(": 10,
      ")": 11,
      "*": 12,
      "+": 13,
      ",": 14,
      "-": 15,
      ".": 16,
      "/": 17,
      "0": 18,
      "1": 19,
      "2": 20,
      "3": 21,
      "4": 22,
      "5": 23,
      "6": 24,
      "7": 25,
      "8": 26,
      "9": 27,
      ":": 28,
      ";": 29,
      "<": 30,
      "=": 31,
      ">": 32,
      "?": 33,
      "@": 34,
      "A": 35,
      "B": 36,
      "C": 37,
      "D": 38,
      "E": 39,
      "F": 40,
      "G": 41,
      "H": 42,
      "I": 43,
      "J": 44,
      "K": 45,
      "L": 46,
      "M": 47,
      "N": 48,
      "O": 49,
      "P": 50,
      "Q": 51,
      "R": 52,
      "S": 53,
      "T": 54,
      "U": 55,
      "V": 56,
      "W": 57,
      "X": 58,
      "Y": 59,
      "Z": 60,
      "[": 61,
      "\\": 62,
      "]": 63,
      "^": 64,
      "_": 65,
      "`": 66,
      "a": 67,
      "b": 68,
      "c": 69,
      "d": 70,
      "e": 71,
      "f": 72,
      "g": 73,
      "h": 74,
      "i": 75,
      "j": 76,
      "k": 77,
      "l": 78,
      "m": 79,
      "n": 80,
      "o": 81,
      "p": 82,
      "q": 83,
      "r": 84,
      "s": 85,
      "t": 86,
      "u": 87,
      "v": 88,
      "w": 89,
      "x": 90,
      "y": 91,
      "z": 92,
      "|": 93,
      "}": 94,
      "~": 95,
      "¡": 96,
      "¢": 97,
      "£": 98,
      "¤": 99,
      "¥": 100,
      "¦": 101,
      "§": 102,
      "¨": 103,
      "©": 104,
      "ª": 105,
      "«": 106,
      "¬": 107,
      "®": 108,
      "¯": 109,
      "°": 110,
      "±": 111,
      "²": 112,
      "³": 113,
      "´": 114,
      "µ": 115,
      "¶": 116,
      "·": 117,
      "¸": 118,
      "¹": 119,
      "º": 120,
      "»": 121,
      "¼": 122,
      "½": 123,
      "¾": 124,
      "¿": 125,
      "Â": 126,
      "Ã": 127,
      "Ä": 128,
      "Å": 129,
      "Æ": 130,
      "Ç": 131,
      "È": 132,
      "É": 133,
      "Ê": 134,
      "Ë": 135,
      "Ì": 136,
      "Í": 137,
      "Î": 138,
      "Ï": 139,
      "Ð": 140,
      "Ñ": 141,
      "Ò": 142,
      "Ó": 143,
      "Ô": 144,
      "Õ": 145,
      "Ö": 146,
      "×": 147,
      "Ø": 148,
      "Ù": 149,
      "Ú": 150,
      "Û": 151,
      "Ü": 152,
      "Ý": 153,
      "Þ": 154,
      "ß": 155,
      "à": 156,
      "á": 157,
      "â": 158,
      "ã": 159,
      "ä": 160,
      "å": 161,
      "æ": 162,
      "ç": 163,
      "è": 164,
      "é": 165,
      "ê": 166,
      "ë": 167,
      "ì": 168,
      "í": 169,
      "ï": 170,
      "ð": 171,
      "Ċ": 172,
      "Ġ": 173,
      "Ģ": 174,
      "ģ": 175,
      "Ĥ": 176,
      "ĥ": 177,
      "Ħ": 178,
      "ħ": 179,
      "Ĩ": 180,
      "ĩ": 181,
      "Ī": 182,
      "ī": 183,
      "Ĭ": 184,
      "ĭ": 185,
      "Į": 186,
      "į": 187,
      "İ": 188,
      "ı": 189,
      "Ĳ": 190,
      "ĳ": 191,
      "Ĵ": 192,
      "ĵ": 193,
      "Ķ": 194,
      "ķ": 195,
      "ĸ": 196,
      "Ĺ": 197,
      "ĺ": 198,
      "Ļ": 199,
      "ļ": 200,
      "Ľ": 201,
      "ľ": 202,
      "Ŀ": 203,
      "ŀ": 204,
      "Ł": 205,
      "ł": 206,
      "Ń": 207,
      "Ġt": 208,
      "Ġa": 209,
      "he": 210,
      "in": 211,
      "re": 212,
      "Ġthe": 213,
      "on": 214,
      "er": 215,
      "Ġo": 216,
      "at": 217,
      "Ġs": 218,
      "en": 219,
      "Ġc": 220,
      "Ġw": 221,
      "es": 222,
      "is": 223,
      "nd": 224,
      "it": 225,
      "or": 226,
      "Ġp": 227,
      "al": 228,
      "ed": 229,
      "Ġb": 230,
      "Ġof": 231,
      "an": 232,
      "Ġf": 233,
      "ing": 234,
      "Ġin": 235,
      "ou": 236,
      "ar": 237,
      "Ġm": 238,
      "Ġand": 239,
      "Ġto": 240,
      "ic": 241,
      "Ġd": 242,
      "ion": 243,
      "le": 244,
      "ro": 245,
      "as": 246,
      "Ġh": 247,
      "Ġth": 248,
      "ent": 249,
      "ct": 250,
      "Ġe": 251,
      "il": 252,
      "Ġre": 253,
      "om": 254,
      "ve": 255,
      "Ġl": 256,
      "st": 257,
      "Ġn": 258,
      "ly": 259,
      "Ġbe": 260,
      "âĢ": 261,
      "Ġis": 262,
      "ĠT": 263,
      "se": 264,
      "ol": 265,
      "Ġg": 266,
      "ation": 267,
      "im": 268,
      "id": 269,
      "et": 270,
      "ut": 271,
      "ce": 272,
      "ot": 273,
      "ur": 274,
      "ch": 275,
      "ra": 276,
      "ow": 277,
      "ĠA": 278,
      "Ġfor": 279,
      "ig": 280,
      "Ġthat": 281,
      "ĠS": 282,
      "Ġu": 283,
      "Ġon": 284,
      "Ġst": 285,
      "ver": 286,
      "ĠC": 287,
      "ĠI": 288,
      "Ġy": 289,
      "ir": 290,
      "ul": 291,
      "ay": 292,
      "am": 293,
      "Ġas": 294,
      "ith": 295,
      "el": 296,
      "ad": 297,
      "her": 298,
      "Ġpro": 299,
      "Ġare": 300,
      "Ġcon": 301,
      "Ġan": 302,
      "Ġwith": 303,
      "Ġwh": 304,
      "if": 305,
      "Ġit": 306,
      "Ġyou": 307,
      "Ġor": 308,
      "Ġal": 309,
      "ter": 310,
      "od": 311,
      "ĠM": 312,
      "Ġ(": 313,
      "ĠThe": 314,
      "ment": 315,
      "ge": 316,
      "ĠP": 317,
      "Ġ1": 318,
      "th": 319,
      "op": 320,
      "ist": 321,
      "ate": 322,
      "ers": 323,
      "Ġde": 324,
      "ill": 325,
      "ies": 326,
      "Ġhe": 327,
      "ess": 328,
      "ab": 329,
      "ĠB": 330,
      "Ġex": 331,
      "us": 332,
      "ore": 333,
      "Ġwe": 334,
      "ect": 335,
      "Ġsu": 336,
      "Ġcom": 337,
      "âĢĻ": 338,
      "ity": 339,
      "est": 340,
      "res": 341,
      "ive": 342,
      "Ġha": 343,
      "ac": 344,
      "um": 345,
      "ld": 346,
      "ĠH": 347,
      "rom": 348,
      "os": 349,
      "Ġv": 350,
      "ke": 351,
      "Ġby": 352,
      "ant": 353,
      "em": 354,
      "iv": 355,
      "qu": 356,
      "ain": 357,
      "ĠW": 358,
      "Ġat": 359,
      "nt": 360,
      "pp": 361,
      "igh": 362,
      "ĠD": 363,
      "Ġwas": 364,
      "ud": 365,
      "Ġcan": 366,
      "Ġfrom": 367,
      "ĠE": 368,
      "and": 369,
      "oc": 370,
      "Ġch": 371,
      "Ġr": 372,
      "ĠR": 373,
      "ort": 374,
      "Ġne": 375,
      "ĠF": 376,
      "Ġse": 377,
      "ial": 378,
      "Ġ2": 379,
      "ure": 380,
      "Ġnot": 381,
      "ĠâĢ": 382,
      "un": 383,
      "art": 384,
      "ical": 385,
      "Ġle": 386,
      "ĠN": 387,
      "ĠG": 388,
      "Ġhave": 389,
      "ri": 390,
      "ĠL": 391,
      "og": 392,
      "Ġsh": 393,
      "Ġen": 394,
      "Ġthis": 395,
      "Ġsp": 396,
      "ight": 397,
      "Ġab": 398,
      "pt": 399,
      "rou": 400,
      "ich": 401,
      "red": 402,
      "Ġwor": 403,
      "all": 404,
      "00": 405,
      "ther": 406,
      "gh": 407,
      "ould": 408,
      "The": 409,
      "ions": 410,
      "our": 411,
      "ost": 412,
      "ome": 413,
      "Ġim": 414,
      "du": 415,
      "ated": 416,
      "ine": 417,
      "Ġus": 418,
      "per": 419,
      "ard": 420,
      "out": 421,
      "Ġpl": 422,
      "ag": 423,
      "Ġtheir": 424,
      "ell": 425,
      "ide": 426,
      "act": 427,
      "ff": 428,
      "Ġint": 429,
      "ans": 430,
      "ĠO": 431,
      "ast": 432,
      "pl": 433,
      "ear": 434,
      "age": 435,
      "ust": 436,
      "ak": 437,
      "Ġwhich": 438,
      "ĠJ": 439,
      "Ġk": 440,
      "Ġwhe": 441,
      "ous": 442,
      "ec": 443,
      "Ġthey": 444,
      "Ġyour": 445,
      "iz": 446,
      "ĠU": 447,
      "Ġall": 448,
      "ib": 449,
      "ood": 450,
      "ult": 451,
      "Ġad": 452,
      "Ġcont": 453,
      "Ġwill": 454,
      "ĠIn": 455,
      "Ġinc": 456,
      "end": 457,
      "cc": 458,
      "ru": 459,
      "Ġdis": 460,
      "ia": 461,
      "Ġmore": 462,
      "âĢĿ": 463,
      "ong": 464,
      "ap": 465,
      "Ġcomp": 466,
      "ip": 467,
      "Ġres": 468,
      "ations": 469,
      "vel": 470,
      "ew": 471,
      "Ġhas": 472,
      "ere": 473,
      "so": 474,
      "Ġdo": 475,
      "orm": 476,
      "ary": 477,
      "ater": 478,
      "ĠTh": 479,
      "ence": 480,
      "are": 481,
      "ild": 482,
      "able": 483,
      "Ġother": 484,
      "Ġman": 485,
      "Ġcl": 486,
      "ual": 487,
      "ks": 488,
      "Ġbut": 489,
      "Ġwere": 490,
      "ry": 491,
      "ind": 492,
      "ĠâĢľ": 493,
      "Ġper": 494,
      "Ġone": 495,
      "ance": 496,
      "ep": 497,
      "ach": 498,
      "Ġme": 499,
      "Ġalso": 500,
      "Ġte": 501,
      "Ġimp": 502,
      "ents": 503,
      "'s": 504,
      "ose": 505,
      "reat": 506,
      "ign": 507,
      "ake": 508,
      "ass": 509,
      "ress": 510,
      "Ġ19": 511,
      "ase": 512,
      "au": 513,
      "av": 514,
      "ition": 515,
      "Ġso": 516,
      "Ġj": 517,
      "ction": 518,
      "Ġout": 519,
      "ice": 520,
      "Ġun": 521,
      "Ġar": 522,
      "ber": 523,
      "very": 524,
      "Ġpart": 525,
      "ime": 526,
      "Ġapp": 527,
      "one": 528,
      "Ġabout": 529,
      "ord": 530,
      "Ġev": 531,
      "ace": 532,
      "ens": 533,
      "ish": 534,
      "Ġwho": 535,
      "Ġstud": 536,
      "ok": 537,
      ").": 538,
      "ory": 539,
      "ount": 540,
      "ĠSt": 541,
      "ame": 542,
      "ire": 543,
      "ack": 544,
      "Ġpe": 545,
      "Ġhis": 546,
      "Ġinf": 547,
      "ub": 548,
      "Ġcomm": 549,
      "Ġsy": 550,
      "Ġthem": 551,
      "ors": 552,
      "Ġsc": 553,
      "ĠK": 554,
      "ces": 555,
      "ite": 556,
      "ue": 557,
      "ang": 558,
      "Ġ\"": 559,
      "ike": 560,
      "ound": 561,
      "ree": 562,
      "now": 563,
      "olog": 564,
      "low": 565,
      "ĠIt": 566,
      "Ġbec": 567,
      "Ġup": 568,
      "Ġpre": 569,
      "Ġthan": 570,
      "ie": 571,
      "Ġmay": 572,
      "ric": 573,
      "ile": 574,
      "ĠCh": 575,
      "Ġqu": 576,
      "iff": 577,
      "Ġsome": 578,
      "ople": 579,
      "Ġyear": 580,
      "ian": 581,
      "Ġrec": 582,
      "ays": 583,
      "ates": 584,
      "ail": 585,
      "nder": 586,
      "Ġthere": 587,
      "ings": 588,
      "Ġbeen": 589,
      "Ġwhen": 590,
      "ough": 591,
      "mer": 592,
      "Ġits": 593,
      "Ġag": 594,
      "Ġinto": 595,
      "Ġgo": 596,
      "ph": 597,
      "ren": 598,
      "Ġtime": 599,
      "vers": 600,
      "Ġ20": 601,
      "Ġtra": 602,
      "Ġwork": 603,
      "rit": 604,
      "Ġthese": 605,
      "erv": 606,
      "ĠV": 607,
      "ĠThis": 608,
      "ons": 609,
      "te": 610,
      "Ġover": 611,
      "ally": 612,
      "Ġpeople": 613,
      "rough": 614,
      "lud": 615,
      "Ġhow": 616,
      "Ġdiff": 617,
      "Ġtr": 618,
      "ause": 619,
      "Ġhad": 620,
      "ond": 621,
      "Ġcons": 622,
      "ms": 623,
      "ove": 624,
      "Ġro": 625,
      "tern": 626,
      "Ġcol": 627,
      "Ġuse": 628,
      "ll": 629,
      "Ġ3": 630,
      "Ġra": 631,
      "Ġour": 632,
      "Ġact": 633,
      "ific": 634,
      "Ġbet": 635,
      "we": 636,
      "Ġmost": 637,
      "int": 638,
      "Ġunder": 639,
      "lic": 640,
      "ities": 641,
      "Ġknow": 642,
      "irst": 643,
      "ments": 644,
      "ys": 645,
      "Ġlike": 646,
      "lect": 647,
      "Ġsa": 648,
      "alth": 649,
      "Ġwould": 650,
      "Ġbl": 651,
      "Ġdes": 652,
      "Ġacc": 653,
      "ning": 654,
      "ook": 655,
      "ious": 656,
      "ject": 657,
      "velop": 658,
      "les": 659,
      "row": 660,
      "ĠY": 661,
      "stem": 662,
      "Ġtw": 663,
      "Ġnew": 664,
      "Ġrel": 665,
      "Ġneed": 666,
      "Ġsuch": 667,
      "Ġif": 668,
      "Ġrep": 669,
      "ational": 670,
      "ffect": 671,
      "ient": 672,
      "Ġinclud": 673,
      "Ġchild": 674,
      "Ġany": 675,
      "ob": 676,
      "Ġhel": 677,
      "ative": 678,
      "Ġgen": 679,
      "hed": 680,
      "cess": 681,
      "ple": 682,
      "Ġwhat": 683,
      "ular": 684,
      "Ġonly": 685,
      "Ġpr": 686,
      "Ġhelp": 687,
      "Ġused": 688,
      "Ġno": 689,
      "ced": 690,
      "Ġprov": 691,
      "),": 692,
      "ating": 693,
      "yp": 694,
      "Ġph": 695,
      "ool": 696,
      "ov": 697,
      "Ġprodu": 698,
      "Ġind": 699,
      "Ġmany": 700,
      "Ġthrough": 701,
      "Ġdevelop": 702,
      "ĠUn": 703,
      "Ġoff": 704,
      "Ġam": 705,
      "Ġfirst": 706,
      "fter": 707,
      "Ġfe": 708,
      "oss": 709,
      "Ġspec": 710,
      "iet": 711,
      "ics": 712,
      "ath": 713,
      "ise": 714,
      "ark": 715,
      "uc": 716,
      "Ġreg": 717,
      "round": 718,
      "Ġpo": 719,
      "Ġem": 720,
      "Ġac": 721,
      "ne": 722,
      "erm": 723,
      "Ġexp": 724,
      "ts": 725,
      "rib": 726,
      "uring": 727,
      "ful": 728,
      "Ġtwo": 729,
      "Ġsystem": 730,
      "hen": 731,
      "ink": 732,
      "oth": 733,
      "old": 734,
      "iss": 735,
      "Ġdiffere": 736,
      "eth": 737,
      "ied": 738,
      "ility": 739,
      "Ġob": 740,
      "Ġdec": 741,
      "ible": 742,
      "Ġass": 743,
      "als": 744,
      "Ġatt": 745,
      "Ġadd": 746,
      "rop": 747,
      "ased": 748,
      "Ġsur": 749,
      "ten": 750,
      "ife": 751,
      "ĠâĢĵ": 752,
      "ange": 753,
      "ĠHe": 754,
      "aw": 755,
      "ert": 756,
      "ng": 757,
      "Ġshould": 758,
      "Ġ-": 759,
      "fore": 760,
      "ower": 761,
      "ram": 762,
      "In": 763,
      "Ġsupp": 764,
      "ures": 765,
      "arch": 766,
      "Ġfl": 767,
      "Ġ201": 768,
      "Ġwell": 769,
      "ble": 770,
      "ween": 771,
      "Ġwater": 772,
      "Ġrem": 773,
      "Ġ200": 774,
      "Ġyears": 775,
      "ract": 776,
      "Ġinv": 777,
      "Ġco": 778,
      "sel": 779,
      "Ġsub": 780,
      "own": 781,
      "gan": 782,
      "ade": 783,
      "ution": 784,
      "Ġsm": 785,
      "Ġbetween": 786,
      "Ġcould": 787,
      "its": 788,
      "Ġ4": 789,
      "Ġhealth": 790,
      "hes": 791,
      "Ġpres": 792,
      "Ġwhere": 793,
      "Ġhigh": 794,
      "cy": 795,
      "ick": 796,
      "Ġtrans": 797,
      "wn": 798,
      "Ġmake": 799,
      "uch": 800,
      "ever": 801,
      "ily": 802,
      "Ġ5": 803,
      "Ġget": 804,
      "ss": 805,
      "Ġher": 806,
      "xt": 807,
      "ants": 808,
      "Ġpers": 809,
      "Ġear": 810,
      "ident": 811,
      "Ġrese": 812,
      "ology": 813,
      "Ġimport": 814,
      "form": 815,
      "ural": 816,
      "Ġbu": 817,
      "ited": 818,
      "ience": 819,
      "chn": 820,
      "Ġinter": 821,
      "Ġpol": 822,
      "ivers": 823,
      "meric": 824,
      "chool": 825,
      "Ġform": 826,
      "ting": 827,
      "land": 828,
      "Ġdisc": 829,
      "Ġnum": 830,
      "Ġmod": 831,
      "Ġinst": 832,
      "ines": 833,
      "Ġexam": 834,
      "Ġfound": 835,
      "ont": 836,
      "ists": 837,
      "ict": 838,
      "ef": 839,
      "Ġbecause": 840,
      "ins": 841,
      "Ġlear": 842,
      "Ġmed": 843,
      "Ġlar": 844,
      "ually": 845,
      "gy": 846,
      "hat": 847,
      "Ġafter": 848,
      "Ġworld": 849,
      "Ġthen": 850,
      "ata": 851,
      "Ġsim": 852,
      "Ġinform": 853,
      "Ġeven": 854,
      "Ġlong": 855,
      "Ġdifferent": 856,
      "urn": 857,
      "ism": 858,
      "Ġcent": 859,
      "Ġvery": 860,
      "ness": 861,
      "Ġjust": 862,
      "oy": 863,
      "Ġcar": 864,
      "Ġexper": 865,
      "Ġeffect": 866,
      "Ġincre": 867,
      "ft": 868,
      "Ġway": 869,
      "Ġhum": 870,
      "other": 871,
      "Ġdet": 872,
      "ature": 873,
      "Ġcount": 874,
      "cept": 875,
      "Ġed": 876,
      "get": 877,
      "Ġsee": 878,
      "Ġtyp": 879,
      "ĠAmeric": 880,
      "aking": 881,
      "vent": 882,
      "ically": 883,
      "Ġref": 884,
      "Ġthose": 885,
      "Ġ18": 886,
      "Ġresp": 887,
      "ollow": 888,
      "ives": 889,
      "Ġke": 890,
      "Ġsign": 891,
      "Ġvar": 892,
      "Ġprog": 893,
      "Ġcall": 894,
      "Ġgener": 895,
      "Ġpub": 896,
      "ck": 897,
      "cer": 898,
      "Ġchildren": 899,
      "iew": 900,
      "Ġevery": 901,
      "Ġsaid": 902,
      "Ġsoc": 903,
      "ues": 904,
      "Ġext": 905,
      "arm": 906,
      "omm": 907,
      "Ġpat": 908,
      "Ġprocess": 909,
      "ps": 910,
      "Ġresult": 911,
      "ds": 912,
      "ork": 913,
      "Ġbeing": 914,
      "Ġfact": 915,
      "Ġsec": 916,
      "Ġloc": 917,
      ".âĢĿ": 918,
      "ases": 919,
      "Ġeach": 920,
      "tle": 921,
      "Ġpartic": 922,
      "led": 923,
      "iron": 924,
      "Ġca": 925,
      "Ġlife": 926,
      "Ġset": 927,
      "ruct": 928,
      "Ġimportant": 929,
      "Th": 930,
      "Ġgra": 931,
      "ĠAl": 932,
      "Ġcommun": 933,
      "vern": 934,
      "Ġtechn": 935,
      "ages": 936,
      "ody": 937,
      "Ġdist": 938,
      "Ġinformation": 939,
      "ather": 940,
      "Ġrequ": 941,
      "Ġmuch": 942,
      "cent": 943,
      "ĠWe": 944,
      "Ġmy": 945,
      "Ġshe": 946,
      "ved": 947,
      "ĠPro": 948,
      "Ġcre": 949,
      "Ġdep": 950,
      "Ġmon": 951,
      "Ġfam": 952,
      "Ġdef": 953,
      "ized": 954,
      "Ġfollow": 955,
      "Ġduring": 956,
      "Ġart": 957,
      "Ġown": 958,
      "Ġent": 959,
      "imes": 960,
      "ward": 961,
      "io": 962,
      "Ġread": 963,
      "Ġright": 964,
      "ices": 965,
      "Ġfood": 966,
      "Ġlevel": 967,
      "gg": 968,
      "Ġstudents": 969,
      "Ġsame": 970,
      "ĠThey": 971,
      "..": 972,
      "Ġlead": 973,
      "ĠAs": 974,
      "hip": 975,
      "ection": 976,
      "Ġmade": 977,
      "ĠRe": 978,
      "Ġsk": 979,
      "Ġdoes": 980,
      "Ġaut": 981,
      "Ġstudy": 982,
      "any": 983,
      "Ġperson": 984,
      "ize": 985,
      "Ġfind": 986,
      "the": 987,
      "Ġins": 988,
      "Ġgrow": 989,
      "Ġ6": 990,
      "Ġstr": 991,
      "Ġmin": 992,
      "Ġdata": 993,
      "Ġcur": 994,
      "ĠIf": 995,
      "Ġend": 996,
      "Ġproble": 997,
      "Ġav": 998,
      ".,": 999,
      "und": 1000,
      "ted": 1001,
      "onom": 1002,
      "Ġgood": 1003,
      "Ġpop": 1004,
      "Ġboth": 1005,
      "Ġche": 1006,
      "Ġback": 1007,
      "ĠFor": 1008,
      "ĠAn": 1009,
      "ale": 1010,
      "Ġgrou": 1011,
      "viron": 1012,
      "ĠAr": 1013,
      "Ġexpl": 1014,
      "19": 1015,
      "ars": 1016,
      "Ġbefore": 1017,
      "Ġsmall": 1018,
      "iversity": 1019,
      "Ġschool": 1020,
      "Ġshow": 1021,
      "stand": 1022,
      "Ġcomple": 1023,
      "Ġusing": 1024,
      "Ġhist": 1025,
      "||": 1026,
      "ality": 1027,
      "omen": 1028,
      "ince": 1029,
      "ially": 1030,
      "ivid": 1031,
      "Ġgl": 1032,
      "Ġagain": 1033,
      "Ġdi": 1034,
      "Ġprot": 1035,
      "read": 1036,
      "Ġcor": 1037,
      "20": 1038,
      "ined": 1039,
      "Ġmain": 1040,
      "nce": 1041,
      "Ġbo": 1042,
      "ty": 1043,
      "Ġoften": 1044,
      "Ġtreat": 1045,
      "ĠHow": 1046,
      "inal": 1047,
      "iel": 1048,
      "der": 1049,
      "Ġtest": 1050,
      "rol": 1051,
      "000": 1052,
      "Ġsol": 1053,
      "Ġposs": 1054,
      "Ġval": 1055,
      "Ġbr": 1056,
      "ished": 1057,
      "ergy": 1058,
      "Ġwhile": 1059,
      "ax": 1060,
      "imate": 1061,
      "ute": 1062,
      "ock": 1063,
      "Ġless": 1064,
      "Ġstate": 1065,
      "ix": 1066,
      "Ġlit": 1067,
      "Ġris": 1068,
      "ex": 1069,
      "ĠInd": 1070,
      "Ġdise": 1071,
      "oh": 1072,
      "Ġserv": 1073,
      "ĠNew": 1074,
      "Ġday": 1075,
      "Ġtake": 1076,
      "Ġnow": 1077,
      "Ġec": 1078,
      "ĠSp": 1079,
      "Ġhim": 1080,
      "akes": 1081,
      "Ġocc": 1082,
      "Ġnumber": 1083,
      "irect": 1084,
      "ien": 1085,
      "ral": 1086,
      "Ġorgan": 1087,
      "ury": 1088,
      "ulation": 1089,
      "vironment": 1090,
      "Ġmem": 1091,
      "Ġprovid": 1092,
      "Ġpower": 1093,
      "dition": 1094,
      "Ġcell": 1095,
      "Ġresearch": 1096,
      "ier": 1097,
      "Ġvis": 1098,
      "Ġhuman": 1099,
      "Ġactiv": 1100,
      "ered": 1101,
      "ĠSc": 1102,
      "iety": 1103,
      "Ġfun": 1104,
      "Ġdesign": 1105,
      "Ġsupport": 1106,
      "iving": 1107,
      "Ġchar": 1108,
      "Ġbody": 1109,
      "iqu": 1110,
      "Ġ10": 1111,
      "up": 1112,
      "Ġmust": 1113,
      "Ġbel": 1114,
      "air": 1115,
      "uss": 1116,
      "Ġdown": 1117,
      "Ġthree": 1118,
      "Ġaround": 1119,
      "ves": 1120,
      "ters": 1121,
      "Ġest": 1122,
      "hers": 1123,
      "Ġhand": 1124,
      "Ġlook": 1125,
      "ital": 1126,
      "Ġcommon": 1127,
      "Ġclass": 1128,
      "ven": 1129,
      "ah": 1130,
      "Ġredu": 1131,
      "ger": 1132,
      "Ġgovern": 1133,
      "Ġplan": 1134,
      "Ġconf": 1135,
      "day": 1136,
      "Ġstart": 1137,
      "Ġdid": 1138,
      "Ġgreat": 1139,
      "Ġpoint": 1140,
      "rent": 1141,
      "Ġelect": 1142,
      "âĢĶ": 1143,
      "aj": 1144,
      "ĠBut": 1145,
      "ium": 1146,
      "Ġ7": 1147,
      "ave": 1148,
      "ains": 1149,
      "self": 1150,
      "Ġcle": 1151,
      "Ġland": 1152,
      "Ġser": 1153,
      "This": 1154,
      "Ġlarge": 1155,
      "ross": 1156,
      "Ġcontin": 1157,
      "cl": 1158,
      "ving": 1159,
      "ouse": 1160,
      "Ġexample": 1161,
      "gen": 1162,
      "Ġcare": 1163,
      "Ġreport": 1164,
      "ared": 1165,
      "Ġthough": 1166,
      "itions": 1167,
      "ron": 1168,
      "Ġincluding": 1169,
      "ee": 1170,
      "ional": 1171,
      "com": 1172,
      "Ġcour": 1173,
      "acter": 1174,
      "rain": 1175,
      "Ġconst": 1176,
      ",âĢĿ": 1177,
      "Ġret": 1178,
      "Ġ8": 1179,
      "Ġop": 1180,
      "outh": 1181,
      "Ġunderstand": 1182,
      "ash": 1183,
      "orn": 1184,
      "Ġallow": 1185,
      "anc": 1186,
      "ull": 1187,
      "Ġcalled": 1188,
      "ĠThere": 1189,
      "Ġsom": 1190,
      "eg": 1191,
      "Ġmet": 1192,
      "Ġequ": 1193,
      "ner": 1194,
      "Ġpublic": 1195,
      "Ġstill": 1196,
      "Ġbuild": 1197,
      "Ġeduc": 1198,
      "iver": 1199,
      "Ġadv": 1200,
      "Ġwrit": 1201,
      "way": 1202,
      "esp": 1203,
      "iven": 1204,
      "Ġpract": 1205,
      "ĠYou": 1206,
      "els": 1207,
      "ĠAnd": 1208,
      "Ġbeh": 1209,
      "aterial": 1210,
      "ividual": 1211,
      "âĢĵ": 1212,
      "Ġknown": 1213,
      "10": 1214,
      "Ġthink": 1215,
      ".\"": 1216,
      "Ġquest": 1217,
      "Ġdr": 1218,
      "inc": 1219,
      "ired": 1220,
      "oms": 1221,
      "Ġgu": 1222,
      "erest": 1223,
      "osed": 1224,
      "Ġide": 1225,
      "Ġfew": 1226,
      "Ġappro": 1227,
      "Ġgre": 1228,
      "oci": 1229,
      "ected": 1230,
      "Ġplace": 1231,
      "Ġeas": 1232,
      "âĢľ": 1233,
      "ĠâĢĺ": 1234,
      "ential": 1235,
      "itive": 1236,
      "lish": 1237,
      "Ġstand": 1238,
      "iod": 1239,
      "Ġmat": 1240,
      "ination": 1241,
      "Ġ9": 1242,
      "ries": 1243,
      "ources": 1244,
      "Ġmight": 1245,
      "ĠIs": 1246,
      "de": 1247,
      "bers": 1248,
      "oun": 1249,
      "ense": 1250,
      "ids": 1251,
      "eral": 1252,
      "me": 1253,
      "ization": 1254,
      "raph": 1255,
      "ank": 1256,
      "Ġenvironment": 1257,
      "Ġ199": 1258,
      "ĠWh": 1259,
      "Ġchang": 1260,
      "ĠThese": 1261,
      "ived": 1262,
      "ior": 1263,
      "Ġwithout": 1264,
      "Ġdem": 1265,
      "ason": 1266,
      "ering": 1267,
      "Ġwant": 1268,
      "Ġwithin": 1269,
      "Ġcaus": 1270,
      "tt": 1271,
      "Ġiss": 1272,
      "ertain": 1273,
      "Ġenergy": 1274,
      "Ġindividual": 1275,
      "ĠEng": 1276,
      "ration": 1277,
      "Ġpresent": 1278,
      "ording": 1279,
      "ethod": 1280,
      "Ġsym": 1281,
      "eng": 1282,
      "Ġtem": 1283,
      "ĠUniversity": 1284,
      "Ġphys": 1285,
      "ption": 1286,
      "Ġchange": 1287,
      "Ġproduct": 1288,
      "line": 1289,
      "Ġpur": 1290,
      "Ġcap": 1291,
      "ĠDe": 1292,
      "Ġplay": 1293,
      "Ġident": 1294,
      "ians": 1295,
      "illion": 1296,
      "Ġdon": 1297,
      "Ġdevelopment": 1298,
      "Ġlearn": 1299,
      "ffic": 1300,
      "Ġmaterial": 1301,
      "Ġimm": 1302,
      "Ġdirect": 1303,
      "Ġlaw": 1304,
      "less": 1305,
      "ĠAmerican": 1306,
      "Ġsocial": 1307,
      "alk": 1308,
      "ĠCon": 1309,
      "Ġpot": 1310,
      "angu": 1311,
      "orth": 1312,
      "Ġdisease": 1313,
      "Ġwomen": 1314,
      "Ġpass": 1315,
      "Ġimpro": 1316,
      "Ġproject": 1317,
      "Ġprof": 1318,
      "Ġben": 1319,
      "Ġanother": 1320,
      "Ġpos": 1321,
      "Ġarea": 1322,
      "Ġbre": 1323,
      "Ġair": 1324,
      "ets": 1325,
      "arent": 1326,
      "man": 1327,
      "iness": 1328,
      "ability": 1329,
      "Ġsit": 1330,
      "Ġ&": 1331,
      "ton": 1332,
      "Ġve": 1333,
      "Ġsl": 1334,
      "ug": 1335,
      "ological": 1336,
      "agn": 1337,
      "Ġbelie": 1338,
      "Ġmus": 1339,
      "pr": 1340,
      "sc": 1341,
      "Ġinclude": 1342,
      "Ġlight": 1343,
      "ajor": 1344,
      "Ġrisk": 1345,
      "Ġhome": 1346,
      "Ġbas": 1347,
      "bs": 1348,
      "Ġant": 1349,
      "Ġinterest": 1350,
      "Ġcult": 1351,
      "ats": 1352,
      "Ġrest": 1353,
      "ified": 1354,
      "ccess": 1355,
      "Ġdesc": 1356,
      "It": 1357,
      "ained": 1358,
      "'t": 1359,
      "erc": 1360,
      "Ġbest": 1361,
      "ental": 1362,
      "Ġeng": 1363,
      "rodu": 1364,
      "Ġcontrol": 1365,
      "rist": 1366,
      "Ġmeas": 1367,
      "atic": 1368,
      "Ġet": 1369,
      "ify": 1370,
      "Ġblood": 1371,
      "ĠPh": 1372,
      "ield": 1373,
      "Ġmark": 1374,
      "Ġprogram": 1375,
      "Ġopp": 1376,
      "az": 1377,
      "ently": 1378,
      "Ġbecome": 1379,
      "atural": 1380,
      "Ġgovernment": 1381,
      "ik": 1382,
      "Ġold": 1383,
      "ways": 1384,
      "Ġsever": 1385,
      "ision": 1386,
      "Ġleg": 1387,
      "arc": 1388,
      "Ġmethod": 1389,
      "Ġeconom": 1390,
      "Ġanal": 1391,
      "ĠAd": 1392,
      "Ġpar": 1393,
      "Ġpain": 1394,
      "Ġlow": 1395,
      "lished": 1396,
      "Ġmil": 1397,
      "Ġagainst": 1398,
      "Ġmove": 1399,
      "Ġearly": 1400,
      "Ġbetter": 1401,
      "Ġele": 1402,
      "ĠHowever": 1403,
      "hor": 1404,
      "Ġanim": 1405,
      "gin": 1406,
      "ource": 1407,
      "Ġproper": 1408,
      "Ġhere": 1409,
      "here": 1410,
      "ern": 1411,
      "str": 1412,
      "to": 1413,
      "Ġwar": 1414,
      "ining": 1415,
      "ĠSh": 1416,
      "Ġorder": 1417,
      "ead": 1418,
      "ills": 1419,
      "Ġfore": 1420,
      "Ġreal": 1421,
      "Ġtoo": 1422,
      "Ġlast": 1423,
      "Ġkeep": 1424,
      "Ġprovide": 1425,
      "Ġmeans": 1426,
      "Ġsecond": 1427,
      "Ġgroup": 1428,
      "ission": 1429,
      "icle": 1430,
      "ention": 1431,
      "ards": 1432,
      "Ġfamily": 1433,
      "Ġoper": 1434,
      "ider": 1435,
      "ĠRes": 1436,
      "use": 1437,
      "Ġcause": 1438,
      "Ġhistory": 1439,
      "Ġmajor": 1440,
      "rap": 1441,
      "eed": 1442,
      "ories": 1443,
      "Ġavail": 1444,
      "amp": 1445,
      "Ġtre": 1446,
      "Ġdev": 1447,
      "Ġter": 1448,
      "ĠUnited": 1449,
      "Ġunt": 1450,
      "Ġsay": 1451,
      "Ġparticular": 1452,
      "Ġoccur": 1453,
      "Ġpossible": 1454,
      "Ġpercent": 1455,
      "ware": 1456,
      "ples": 1457,
      "ised": 1458,
      "Ġcurrent": 1459,
      "ote": 1460,
      "Ġfin": 1461,
      "Ġtop": 1462,
      "Ġseveral": 1463,
      "ĠâĢĶ": 1464,
      "ĠEx": 1465,
      "ĠCl": 1466,
      "irc": 1467,
      "Ġnear": 1468,
      "ients": 1469,
      "Ġaddition": 1470,
      "ograph": 1471,
      "Ġsaf": 1472,
      "ĠWhen": 1473,
      "Ġmean": 1474,
      "Ġindu": 1475,
      "pect": 1476,
      "Ġinvol": 1477,
      "ĠCol": 1478,
      "Ġorig": 1479,
      "ina": 1480,
      "Ġable": 1481,
      "ret": 1482,
      "oid": 1483,
      "Ġlearning": 1484,
      "Ġ15": 1485,
      "ogn": 1486,
      "lu": 1487,
      "idence": 1488,
      "par": 1489,
      "view": 1490,
      "Ġcr": 1491,
      "Ġhig": 1492,
      "Ġperform": 1493,
      "Ġbenef": 1494,
      "Ġperiod": 1495,
      "Ġthings": 1496,
      "Ġsince": 1497,
      "ĠZ": 1498,
      "Ġspecies": 1499,
      "Ġbus": 1500,
      "Ġmar": 1501,
      "Ġhapp": 1502,
      "Ġlangu": 1503,
      "Ġprom": 1504,
      "Ġel": 1505,
      "Ġmen": 1506,
      "Ġopen": 1507,
      "Ġcal": 1508,
      "Ġareas": 1509,
      "ĠPl": 1510,
      "Ġscient": 1511,
      "Ġnon": 1512,
      "though": 1513,
      "Ġamong": 1514,
      "ĠGod": 1515,
      "ator": 1516,
      "Ġfeel": 1517,
      "Ġothers": 1518,
      "ĠCan": 1519,
      "sy": 1520,
      "Ġlim": 1521,
      "br": 1522,
      "Ġaffect": 1523,
      "Ġname": 1524,
      ",\"": 1525,
      "What": 1526,
      "Ġsays": 1527,
      "Ġtreatment": 1528,
      "Ġ.": 1529,
      "Ġ[": 1530,
      "port": 1531,
      "ames": 1532,
      "ilar": 1533,
      "Ġfre": 1534,
      "ww": 1535,
      "ĠStates": 1536,
      "ĠComm": 1537,
      "Ġsignific": 1538,
      "ĠSe": 1539,
      "osp": 1540,
      "Ġbased": 1541,
      "Ġcountry": 1542,
      "ĠTo": 1543,
      "ane": 1544,
      "Ġgr": 1545,
      "urop": 1546,
      "ole": 1547,
      "Ġfollowing": 1548,
      "Ġavailable": 1549,
      "of": 1550,
      "ĠAt": 1551,
      "ends": 1552,
      "Ġcost": 1553,
      "Ġtimes": 1554,
      "Ġcertain": 1555,
      "Ġfour": 1556,
      "Ġplant": 1557,
      "Ġaccess": 1558,
      "ling": 1559,
      "ended": 1560,
      "Ġhead": 1561,
      "Ġfac": 1562,
      "Ġprevent": 1563,
      "ploy": 1564,
      "elf": 1565,
      "Ġcase": 1566,
      "Ġdel": 1567,
      "__": 1568,
      "ĠQ": 1569,
      "Ġobject": 1570,
      "omp": 1571,
      "ably": 1572,
      "Ġcond": 1573,
      "urther": 1574,
      "ocus": 1575,
      "Ġage": 1576,
      "Ġwee": 1577,
      "une": 1578,
      "ots": 1579,
      "be": 1580,
      "Ġconn": 1581,
      "Ġrun": 1582,
      "Ġstruct": 1583,
      "Ġview": 1584,
      "Ġlo": 1585,
      "ances": 1586,
      "Ġpost": 1587,
      "Ġlocal": 1588,
      "Ġfree": 1589,
      "Ġcome": 1590,
      "ĠChrist": 1591,
      "stit": 1592,
      "ope": 1593,
      "Ġbro": 1594,
      "Ġsuccess": 1595,
      "Ġcells": 1596,
      "cing": 1597,
      "Ġlab": 1598,
      "Ġ17": 1599,
      "ĠEn": 1600,
      "Ġtype": 1601,
      "ression": 1602,
      "Ġrece": 1603,
      "Ġvol": 1604,
      "Ġlist": 1605,
      "Ġmonth": 1606,
      "Ġpress": 1607,
      "We": 1608,
      "Ġproblem": 1609,
      "ĠCent": 1610,
      "Ġlittle": 1611,
      "ething": 1612,
      "Ġbi": 1613,
      "Ġintern": 1614,
      "resent": 1615,
      "Ġyoung": 1616,
      "hy": 1617,
      "Ġcreat": 1618,
      "olution": 1619,
      "ggest": 1620,
      "Ġput": 1621,
      "Ġbir": 1622,
      "Ġlevels": 1623,
      "icult": 1624,
      "urope": 1625,
      "Ġnatural": 1626,
      "oint": 1627,
      "Ġproblems": 1628,
      "ĠNational": 1629,
      "Ġlater": 1630,
      "Ġfar": 1631,
      "Ġassoci": 1632,
      "Ġhard": 1633,
      "Ġuntil": 1634,
      "aper": 1635,
      "Ġlet": 1636,
      "work": 1637,
      "ged": 1638,
      "ones": 1639,
      "If": 1640,
      "Ġbook": 1641,
      "por": 1642,
      "Ġflow": 1643,
      "Ġ12": 1644,
      "Ġmaking": 1645,
      "not": 1646,
      "Ġseem": 1647,
      "ither": 1648,
      "ĠTe": 1649,
      "Ġamount": 1650,
      "Ġgiven": 1651,
      "ately": 1652,
      "12": 1653,
      "Ġsuggest": 1654,
      "ĠAf": 1655,
      "Ġheart": 1656,
      "ortun": 1657,
      "Ġturn": 1658,
      "Ġcomput": 1659,
      "ledge": 1660,
      "Ġimpact": 1661,
      "oks": 1662,
      "over": 1663,
      "Ġess": 1664,
      "Ġmult": 1665,
      "hem": 1666,
      "Ġcho": 1667,
      "Ġpolit": 1668,
      "uture": 1669,
      "ides": 1670,
      "ured": 1671,
      "ĠBe": 1672,
      "Ġdeterm": 1673,
      "atory": 1674,
      "Ġsw": 1675,
      "ication": 1676,
      "ĠOr": 1677,
      "Ġfocus": 1678,
      "Ġsignificant": 1679,
      "18": 1680,
      "Ġshort": 1681,
      "Ġsomething": 1682,
      "agement": 1683,
      "aps": 1684,
      "aken": 1685,
      "Ġbehav": 1686,
      "Ġcirc": 1687,
      "ĠFr": 1688,
      "Ġcourse": 1689,
      "icro": 1690,
      "Ġlikely": 1691,
      "ĠEurope": 1692,
      "Ġalong": 1693,
      "Ġinvest": 1694,
      "Ġdue": 1695,
      "isc": 1696,
      "Ġalways": 1697,
      "orld": 1698,
      "Ġdra": 1699,
      "Ġ$": 1700,
      "Ġeducation": 1701,
      "Ġfunction": 1702,
      "ĠUS": 1703,
      "vious": 1704,
      "Ġrad": 1705,
      "ĠAll": 1706,
      "Ġcomb": 1707,
      "ĠOn": 1708,
      "Ġappear": 1709,
      "Ġfil": 1710,
      "cle": 1711,
      "Ġclear": 1712,
      "face": 1713,
      "Ġvir": 1714,
      "Ġsystems": 1715,
      "Ġcommunity": 1716,
      "Ġdeath": 1717,
      "Ġdays": 1718,
      "ned": 1719,
      "ending": 1720,
      "Ġsing": 1721,
      "Ġincrease": 1722,
      "Ġ0": 1723,
      "ours": 1724,
      "ried": 1725,
      "ĠMed": 1726,
      "ohn": 1727,
      "Ġmillion": 1728,
      "aster": 1729,
      "ĠWhat": 1730,
      "Ġwords": 1731,
      "ecially": 1732,
      "ring": 1733,
      "Ġusually": 1734,
      "Ġpopulation": 1735,
      "Ġteac": 1736,
      "Ġ16": 1737,
      "Ġcentury": 1738,
      "Ġresults": 1739,
      "Ġobs": 1740,
      "Ġhy": 1741,
      "Ġpast": 1742,
      "As": 1743,
      "Ġdifficult": 1744,
      "Ġlanguage": 1745,
      "Ġconsum": 1746,
      "min": 1747,
      "Ġtoday": 1748,
      "Ġline": 1749,
      "Ġbrain": 1750,
      "Ġgive": 1751,
      "ember": 1752,
      "Ġrele": 1753,
      "Ġauthor": 1754,
      "Ġabove": 1755,
      "Ġcreate": 1756,
      "Ġtechnology": 1757,
      "Ġsimilar": 1758,
      "Ġspecific": 1759,
      "app": 1760,
      "Ġneeds": 1761,
      "Ġexist": 1762,
      "Ġwhy": 1763,
      "Ġdescrib": 1764,
      "etic": 1765,
      "Ġenc": 1766,
      "asing": 1767,
      "ape": 1768,
      "ively": 1769,
      "Ġey": 1770,
      "mit": 1771,
      "Ġspace": 1772,
      "There": 1773,
      "ptoms": 1774,
      "Ġer": 1775,
      "ored": 1776,
      "obal": 1777,
      "Ġconditions": 1778,
      "Ġcancer": 1779,
      "Ġexperience": 1780,
      "idd": 1781,
      "especially": 1782,
      "most": 1783,
      "Ġdiscuss": 1784,
      "Ġparent": 1785,
      "Ġrecord": 1786,
      "Ġill": 1787,
      "Ġmov": 1788,
      "ators": 1789,
      "ruction": 1790,
      "iation": 1791,
      "Ġspecial": 1792,
      "ribut": 1793,
      "Ġnext": 1794,
      "Ġestab": 1795,
      "Ġcharacter": 1796,
      "11": 1797,
      "ĠSo": 1798,
      "Ġfuture": 1799,
      "ĠEar": 1800,
      "ler": 1801,
      "aining": 1802,
      "Ġbegin": 1803,
      "Ġtemper": 1804,
      "Ġnecess": 1805,
      "Ġcrit": 1806,
      "ĠBrit": 1807,
      "50": 1808,
      "reen": 1809,
      "How": 1810,
      "Ġacross": 1811,
      "Ġask": 1812,
      "af": 1813,
      "Ġdam": 1814,
      "Ġ'": 1815,
      "Ġchanges": 1816,
      "Ġapplic": 1817,
      "Ġkind": 1818,
      "Ġstrong": 1819,
      "Ġhigher": 1820,
      "St": 1821,
      "selves": 1822,
      "rug": 1823,
      "ique": 1824,
      "Ġprop": 1825,
      "Ġvarious": 1826,
      "Ġnever": 1827,
      "Ġleast": 1828,
      "Ġtry": 1829,
      "Ġrespons": 1830,
      "nal": 1831,
      "ĠAfric": 1832,
      "by": 1833,
      "ĠBl": 1834,
      "ym": 1835,
      "sp": 1836,
      "ilities": 1837,
      "Ġhowever": 1838,
      "Ġside": 1839,
      "Ġbusiness": 1840,
      "atch": 1841,
      "orts": 1842,
      "Ġresearc": 1843,
      "Ġmot": 1844,
      "Ġtoget": 1845,
      "Ġcountries": 1846,
      "Ġtogether": 1847,
      "Ġprofess": 1848,
      "Ġtru": 1849,
      "Ġcomplete": 1850,
      "Ġleft": 1851,
      "ode": 1852,
      "omes": 1853,
      "Ġcolle": 1854,
      "oney": 1855,
      "for": 1856,
      "let": 1857,
      "ateg": 1858,
      "oman": 1859,
      "Ġenough": 1860,
      "Ġworks": 1861,
      "Ġworking": 1862,
      "aves": 1863,
      "ray": 1864,
      "oot": 1865,
      "Ġaway": 1866,
      "Ġtool": 1867,
      "Ġespecially": 1868,
      "Ġchem": 1869,
      "ison": 1870,
      "alf": 1871,
      "aim": 1872,
      "thing": 1873,
      "ox": 1874,
      "duct": 1875,
      "Ġterm": 1876,
      "Ġimprove": 1877,
      "ĠGerm": 1878,
      "Ġrequire": 1879,
      "Ġnet": 1880,
      "aces": 1881,
      "aching": 1882,
      "Ġhaving": 1883,
      "Ġways": 1884,
      "Ġplants": 1885,
      "Ġkey": 1886,
      "ysis": 1887,
      "lement": 1888,
      "ument": 1889,
      "acy": 1890,
      "Ġcases": 1891,
      "ued": 1892,
      "ipp": 1893,
      "ilt": 1894,
      "Ġgeneral": 1895,
      "Ġcy": 1896,
      "amm": 1897,
      "ges": 1898,
      "ales": 1899,
      "sw": 1900,
      "Ġfull": 1901,
      "istic": 1902,
      "ĠWar": 1903,
      "ires": 1904,
      "Ġtypes": 1905,
      "ĠJohn": 1906,
      "Ġteam": 1907,
      "ising": 1908,
      "Ġbecame": 1909,
      "Ġaccount": 1910,
      "Ġsens": 1911,
      "Ġconsider": 1912,
      "iting": 1913,
      "Ġ198": 1914,
      "Ġeffects": 1915,
      "Ġfund": 1916,
      "Ġrelations": 1917,
      "Ġprim": 1918,
      "Ġsubject": 1919,
      "Ġstudies": 1920,
      "aring": 1921,
      "Ġz": 1922,
      "Ġknowledge": 1923,
      "Ġreason": 1924,
      "Ġprotect": 1925,
      "Ġnorm": 1926,
      "Ġrepresent": 1927,
      "erence": 1928,
      "ĠEnglish": 1929,
      "hing": 1930,
      "Ġwhether": 1931,
      "NA": 1932,
      "Ġcity": 1933,
      "Ġstep": 1934,
      "Ġsymptoms": 1935,
      "//": 1936,
      "Ġmakes": 1937,
      "Ġhouse": 1938,
      "Ġphysical": 1939,
      "Ġmind": 1940,
      "Ġconcer": 1941,
      "itor": 1942,
      "ann": 1943,
      "Ġgoing": 1944,
      "ĠWorld": 1945,
      "Ġself": 1946,
      "apt": 1947,
      "An": 1948,
      "ĠSome": 1949,
      "Ġpatients": 1950,
      "Ġpolic": 1951,
      "side": 1952,
      "ae": 1953,
      "30": 1954,
      "Ġground": 1955,
      "ott": 1956,
      "Ġfurther": 1957,
      "chie": 1958,
      "ency": 1959,
      "ready": 1960,
      "Ġinflu": 1961,
      "Ġlower": 1962,
      "For": 1963,
      "Ġscience": 1964,
      "15": 1965,
      "Ġrole": 1966,
      "200": 1967,
      "edi": 1968,
      "Ġsum": 1969,
      "Ġchall": 1970,
      "ĠGo": 1971,
      "ung": 1972,
      "aut": 1973,
      "lo": 1974,
      "Ġbig": 1975,
      "Ġquestion": 1976,
      "Ġ30": 1977,
      "ification": 1978,
      "ĠOne": 1979,
      "ery": 1980,
      "Ġsure": 1981,
      "Ġeff": 1982,
      "unt": 1983,
      "Ġnut": 1984,
      "ird": 1985,
      "Ġparticip": 1986,
      "Ġopt": 1987,
      "Ġstat": 1988,
      "rel": 1989,
      "Ġgroups": 1990,
      "ĠWith": 1991,
      "mber": 1992,
      "acc": 1993,
      "://": 1994,
      "ĠGen": 1995,
      "Ġactivities": 1996,
      "ley": 1997,
      "Ġens": 1998,
      "Ġemploy": 1999,
      "...": 2000,
      "iol": 2001,
      "Ġstory": 2002,
      "ibility": 2003,
      "Ġvalue": 2004,
      "ĠLe": 2005,
      "Ġpred": 2006,
      "sych": 2007,
      "atures": 2008,
      "Ġtext": 2009,
      "augh": 2010,
      "ules": 2011,
      "urity": 2012,
      "Ġseen": 2013,
      "16": 2014,
      "Ġdig": 2015,
      "ĠIntern": 2016,
      "ables": 2017,
      "Ġclose": 2018,
      "Ġbelow": 2019,
      "urch": 2020,
      "Ġresources": 2021,
      "Ġindic": 2022,
      "ĠThat": 2023,
      "Ġloss": 2024,
      "Ġrather": 2025,
      "Ġtoward": 2026,
      "Ġactivity": 2027,
      "Ġoffic": 2028,
      "Ġlive": 2029,
      "bon": 2030,
      "etimes": 2031,
      "ream": 2032,
      "Ġalready": 2033,
      "Ġ14": 2034,
      "Ġneg": 2035,
      "Ġpotential": 2036,
      "Ġword": 2037,
      "oura": 2038,
      "Ġrange": 2039,
      "ĠHealth": 2040,
      "ĠCar": 2041,
      "rams": 2042,
      "Ġsite": 2043,
      "Ġgrowth": 2044,
      "Ġmodel": 2045,
      "Ġprob": 2046,
      "Ġtradition": 2047,
      "Ġproducts": 2048,
      "ands": 2049,
      "Ġwind": 2050,
      "Ġreally": 2051,
      "verage": 2052,
      "ites": 2053,
      "esc": 2054,
      "Ġdeg": 2055,
      "Ġdone": 2056,
      "Ġwr": 2057,
      "uation": 2058,
      "Ġeither": 2059,
      "Ġproduction": 2060,
      "ĠCal": 2061,
      "Ġur": 2062,
      "Ġcollect": 2063,
      "Ġlot": 2064,
      "Ġrecogn": 2065,
      "ĠAm": 2066,
      "Ġdeveloped": 2067,
      "ublic": 2068,
      "Ġflu": 2069,
      "put": 2070,
      "overed": 2071,
      "amin": 2072,
      "Ġevidence": 2073,
      "Ġdiet": 2074,
      "Ġquality": 2075,
      "ĠMar": 2076,
      "Ġnational": 2077,
      "Ġarticle": 2078,
      "Ġsingle": 2079,
      "fact": 2080,
      "Ġsun": 2081,
      "Ġphot": 2082,
      "osis": 2083,
      "ER": 2084,
      "Ġfall": 2085,
      "Ġfive": 2086,
      "17": 2087,
      "Ġoil": 2088,
      "earch": 2089,
      "Ġaccording": 2090,
      "iple": 2091,
      "ĠDr": 2092,
      "ĠIm": 2093,
      "Ġreturn": 2094,
      "ĠBy": 2095,
      "Ġevent": 2096,
      "Ġonce": 2097,
      "Ġissues": 2098,
      "Ġachie": 2099,
      "ĠGe": 2100,
      "iam": 2101,
      "Ġfr": 2102,
      "yn": 2103,
      "Ġmedical": 2104,
      "Ġindust": 2105,
      "Ġmembers": 2106,
      "Ġbuilding": 2107,
      "Ġresearchers": 2108,
      "idered": 2109,
      "Ġmass": 2110,
      "Ġupon": 2111,
      "ivil": 2112,
      "Ġdoct": 2113,
      "ĠTr": 2114,
      "When": 2115,
      "Ġbat": 2116,
      "Ġmeet": 2117,
      "Ġdom": 2118,
      "ĠShe": 2119,
      "Ġreduce": 2120,
      "Ġpaper": 2121,
      "Ġclimate": 2122,
      "Ġnature": 2123,
      "Ġrate": 2124,
      "ĠNorth": 2125,
      "ule": 2126,
      "Ġdrug": 2127,
      "ibr": 2128,
      "Ġtaken": 2129,
      "Ġrelig": 2130,
      "Ġinit": 2131,
      "ival": 2132,
      "val": 2133,
      "Ġwhole": 2134,
      "Ġquestions": 2135,
      "eter": 2136,
      "Ġsource": 2137,
      "13": 2138,
      "Ġsurface": 2139,
      "Ġfield": 2140,
      "14": 2141,
      "ips": 2142,
      "rect": 2143,
      "Ġabs": 2144,
      "ĠSoc": 2145,
      "Ġann": 2146,
      "fer": 2147,
      "Ġdetail": 2148,
      "Ġskills": 2149,
      "Ġred": 2150,
      "Ġaddress": 2151,
      "Ġhold": 2152,
      "Ġthemselves": 2153,
      "ournal": 2154,
      "Ġsent": 2155,
      "ĠAmerica": 2156,
      "ĠSouth": 2157,
      "Ġcreated": 2158,
      "Ġfrequ": 2159,
      "ety": 2160,
      "Ġconcept": 2161,
      "Ġliving": 2162,
      "rict": 2163,
      "ĠAb": 2164,
      "ĠAss": 2165,
      "Ġpolitical": 2166,
      "Ġcannot": 2167,
      "Ġcut": 2168,
      "Ġconsidered": 2169,
      "Ġtot": 2170,
      "ask": 2171,
      "Ġdest": 2172,
      "ĠPr": 2173,
      "Ġwide": 2174,
      "Ġcame": 2175,
      "ĠAust": 2176,
      "roll": 2177,
      "Ġthought": 2178,
      "Ġobserv": 2179,
      "leep": 2180,
      "fficient": 2181,
      "ights": 2182,
      "plic": 2183,
      "Ġintrodu": 2184,
      "Ġwhite": 2185,
      "reme": 2186,
      "Ġfri": 2187,
      "ĠMay": 2188,
      "Ġsoil": 2189,
      "Ġver": 2190,
      "Ġfail": 2191,
      "ĠStud": 2192,
      "sh": 2193,
      "Ġincreased": 2194,
      "Ġsize": 2195,
      "Ġlay": 2196,
      "Ġassociated": 2197,
      "Ġtell": 2198,
      "illed": 2199,
      "ĠRep": 2200,
      "like": 2201,
      "eb": 2202,
      "âĢ¦": 2203,
      "Ġrecomm": 2204,
      "enn": 2205,
      "Ġmicro": 2206,
      "org": 2207,
      "Ġunderstanding": 2208,
      "reg": 2209,
      "Ġ197": 2210,
      "Ġpractice": 2211,
      "Ġsound": 2212,
      "Ġpay": 2213,
      "Ġadult": 2214,
      "ĠYork": 2215,
      "Ġweek": 2216,
      "Ġactually": 2217,
      "Ġpressure": 2218,
      "Ġhistor": 2219,
      "Ġitself": 2220,
      "Ġanimals": 2221,
      "Ġ13": 2222,
      "utions": 2223,
      "Ġskin": 2224,
      "Ġmarket": 2225,
      "oon": 2226,
      "epend": 2227,
      "ober": 2228,
      "):": 2229,
      "Ġopportun": 2230,
      "Ġarg": 2231,
      "Ġstates": 2232,
      "Ġsimple": 2233,
      "Ġglobal": 2234,
      "ĠEarth": 2235,
      "Ġstudent": 2236,
      "Ġstress": 2237,
      "Ġentire": 2238,
      "Ġfamil": 2239,
      "ivity": 2240,
      "Ch": 2241,
      "Ġrequired": 2242,
      "Ġrights": 2243,
      "ĠSy": 2244,
      "Ġpublished": 2245,
      "ĠMan": 2246,
      "Ġsal": 2247,
      "Ġeconomic": 2248,
      "artment": 2249,
      "sequ": 2250,
      "Ġalmost": 2251,
      "ney": 2252,
      "Ġrelated": 2253,
      "Ġneeded": 2254,
      "Ġrelationship": 2255,
      "Ġcomplex": 2256,
      "Ġfat": 2257,
      "Ġeffective": 2258,
      "Ġblack": 2259,
      "itud": 2260,
      "ging": 2261,
      "Ġdoc": 2262,
      "SA": 2263,
      "olic": 2264,
      "erve": 2265,
      "ĠAct": 2266,
      "ened": 2267,
      "Ġmaint": 2268,
      "Ġcondition": 2269,
      "aced": 2270,
      "Ġquick": 2271,
      "aged": 2272,
      "oph": 2273,
      "Ġability": 2274,
      "Ġprovides": 2275,
      "ulations": 2276,
      "Ġmaterials": 2277,
      "ma": 2278,
      "Ġspe": 2279,
      "Ġidea": 2280,
      "pro": 2281,
      "Al": 2282,
      "go": 2283,
      "Ġmor": 2284,
      "ĠDep": 2285,
      "Ġfish": 2286,
      "Ġhtt": 2287,
      "Ġ=": 2288,
      "ening": 2289,
      "Ġmanagement": 2290,
      "Ġcomes": 2291,
      "Ġexerc": 2292,
      "gest": 2293,
      "Ġhalf": 2294,
      "Ġparts": 2295,
      "Ġpurp": 2296,
      "apan": 2297,
      "lying": 2298,
      "ush": 2299,
      ".)": 2300,
      "Ġhealthy": 2301,
      "To": 2302,
      "itary": 2303,
      "eds": 2304,
      "Ġcat": 2305,
      "Ġmodern": 2306,
      "Ġservices": 2307,
      "\".": 2308,
      "Ġpriv": 2309,
      "Ġexperien": 2310,
      "Ġtook": 2311,
      "Ġsuper": 2312,
      "hib": 2313,
      "Ġengine": 2314,
      "ump": 2315,
      "Ġclaim": 2316,
      "oses": 2317,
      "Ġvers": 2318,
      "aging": 2319,
      "Ġavoid": 2320,
      "Ġweight": 2321,
      "Ġport": 2322,
      "ai": 2323,
      "urs": 2324,
      "Ġansw": 2325,
      "oll": 2326,
      "ises": 2327,
      "Ġnecessary": 2328,
      "Ġmoney": 2329,
      "acks": 2330,
      "ply": 2331,
      "Ġarch": 2332,
      "rown": 2333,
      "rad": 2334,
      "Ġprote": 2335,
      "utes": 2336,
      "Ġbegan": 2337,
      "Ġ|": 2338,
      "Ġsuff": 2339,
      "Ġever": 2340,
      "vere": 2341,
      "ores": 2342,
      "ĠState": 2343,
      "ĠGu": 2344,
      "Ġreact": 2345,
      "Ġassess": 2346,
      "cient": 2347,
      "ĠX": 2348,
      "Ġlink": 2349,
      "Ġparents": 2350,
      "chan": 2351,
      "Ġarr": 2352,
      "ĠHist": 2353,
      "Ġpath": 2354,
      "Ġfactors": 2355,
      "Ġmonths": 2356,
      "Ġcoll": 2357,
      "Ġyet": 2358,
      "Ġconduct": 2359,
      "Ġbar": 2360,
      "ĠHis": 2361,
      "Wh": 2362,
      "Ġcomputer": 2363,
      "Ġapproach": 2364,
      "Ġhours": 2365,
      "Ġ100": 2366,
      "ript": 2367,
      "inter": 2368,
      "Ġmedic": 2369,
      "Ġproduce": 2370,
      "ences": 2371,
      "uel": 2372,
      "ĠNe": 2373,
      "my": 2374,
      "Ġregion": 2375,
      "Ġchemical": 2376,
      "irm": 2377,
      "mb": 2378,
      "ensive": 2379,
      "Ġgreen": 2380,
      "Ġcop": 2381,
      "abit": 2382,
      "ume": 2383,
      "Ġfire": 2384,
      "ese": 2385,
      "ederal": 2386,
      "nces": 2387,
      "Ġsense": 2388,
      "Ġpopular": 2389,
      "Ġmeasure": 2390,
      "izing": 2391,
      "Ġgas": 2392,
      "bo": 2393,
      "You": 2394,
      "Ġ196": 2395,
      "Ġanalysis": 2396,
      "--": 2397,
      "usion": 2398,
      "Ġpattern": 2399,
      "Ġge": 2400,
      "Ġliter": 2401,
      "empt": 2402,
      "Ġprinc": 2403,
      "Ġthroughout": 2404,
      "Ġtar": 2405,
      "iction": 2406,
      "Ġaction": 2407,
      "iddle": 2408,
      "based": 2409,
      "Ġsepar": 2410,
      "Ġregard": 2411,
      "hold": 2412,
      "Ġemer": 2413,
      "Ġstop": 2414,
      "Ġtherap": 2415,
      "igure": 2416,
      "Ġpersonal": 2417,
      "Ġrecent": 2418,
      "Ġjob": 2419,
      "erous": 2420,
      "Ġ50": 2421,
      "Ġcalc": 2422,
      "ĠBritish": 2423,
      "Ġcolor": 2424,
      "abor": 2425,
      "ĠCont": 2426,
      "Ġincreasing": 2427,
      "Ġsoft": 2428,
      "ze": 2429,
      "ĠDo": 2430,
      "gar": 2431,
      "Ġsam": 2432,
      "ĠCo": 2433,
      "Ġonline": 2434,
      "Ġtaking": 2435,
      "ections": 2436,
      "Ġdog": 2437,
      "estern": 2438,
      "ches": 2439,
      "Ġreading": 2440,
      "Ġut": 2441,
      "het": 2442,
      "Ġtalk": 2443,
      "Ġservice": 2444,
      "ĠComp": 2445,
      "yl": 2446,
      "ĠCanad": 2447,
      "Ġprevious": 2448,
      "pid": 2449,
      "Ġindividuals": 2450,
      "ccording": 2451,
      "Ġfarm": 2452,
      "icles": 2453,
      "Ġlonger": 2454,
      "Ġshows": 2455,
      "asc": 2456,
      "Ġbehavior": 2457,
      "uck": 2458,
      "ĠJapan": 2459,
      "ĠJew": 2460,
      "onse": 2461,
      "Ġstructure": 2462,
      "ĠAfter": 2463,
      "Ġrepl": 2464,
      "Ġcontent": 2465,
      "Ġla": 2466,
      "son": 2467,
      "Ġinteract": 2468,
      "Ġenvironmental": 2469,
      "Ġsix": 2470,
      "Ġbur": 2471,
      "ES": 2472,
      "Ġposition": 2473,
      "Ġmeaning": 2474,
      "Ġheat": 2475,
      "ows": 2476,
      "Ġconc": 2477,
      "emic": 2478,
      "Ġmatter": 2479,
      "Ġtotal": 2480,
      "Ġfeed": 2481,
      "Ġindustry": 2482,
      "Ġdisord": 2483,
      "Ġbuilt": 2484,
      "Ġprovided": 2485,
      "abet": 2486,
      "Ġtraining": 2487,
      "Ġbring": 2488,
      "Ġwriting": 2489,
      "minist": 2490,
      "Ġthing": 2491,
      "Ġtrue": 2492,
      "ĠPe": 2493,
      "yle": 2494,
      "Ġheav": 2495,
      "Ã©": 2496,
      "Ġterms": 2497,
      "ricult": 2498,
      "Ġ25": 2499,
      "Ġsociety": 2500,
      "ID": 2501,
      "ĠResearch": 2502,
      "Ġbreak": 2503,
      "ene": 2504,
      "Ġcheck": 2505,
      "ster": 2506,
      "Ġinj": 2507,
      "aries": 2508,
      "Ġcompany": 2509,
      "istance": 2510,
      "Ġsurv": 2511,
      "vey": 2512,
      "anced": 2513,
      "ĠInstit": 2514,
      "wh": 2515,
      "Ġcontact": 2516,
      "Ġcaused": 2517,
      "lands": 2518,
      "Ġsex": 2519,
      "ĠSchool": 2520,
      "Ġdesigned": 2521,
      "aff": 2522,
      "Ġetc": 2523,
      "fully": 2524,
      "reng": 2525,
      "Ġviol": 2526,
      "Ġaccept": 2527,
      "lor": 2528,
      "lt": 2529,
      "inary": 2530,
      "ĠWhile": 2531,
      "Ġsleep": 2532,
      "Ġbenefits": 2533,
      "aily": 2534,
      "ister": 2535,
      "Ġrev": 2536,
      "Ġclean": 2537,
      "Ġ11": 2538,
      "ns": 2539,
      "Ġincludes": 2540,
      "Ġearth": 2541,
      "Ġlives": 2542,
      "ropri": 2543,
      "Ġmusic": 2544,
      "Ġprograms": 2545,
      "Ġshown": 2546,
      "rought": 2547,
      "astic": 2548,
      "Ġtemperature": 2549,
      "Ġeasy": 2550,
      "ban": 2551,
      "ĠII": 2552,
      "Ġcauses": 2553,
      "Ġce": 2554,
      "Ġcontain": 2555,
      "hood": 2556,
      "iment": 2557,
      "Ġrelative": 2558,
      "Ġvariety": 2559,
      "Ġpositive": 2560,
      "Ġdiagn": 2561,
      "Ġlove": 2562,
      "Ġvide": 2563,
      "Ġsat": 2564,
      "light": 2565,
      "Ġtravel": 2566,
      "ĠÂ": 2567,
      "Ġthreat": 2568,
      "mon": 2569,
      "Ġmethods": 2570,
      "istics": 2571,
      "ucle": 2572,
      "Ġmedia": 2573,
      "itation": 2574,
      "Ġsafe": 2575,
      "ĠEm": 2576,
      "dom": 2577,
      "ched": 2578,
      "imately": 2579,
      "Ġsubst": 2580,
      "Ġpoll": 2581,
      "Ġschools": 2582,
      "Ġsimply": 2583,
      "ĠSu": 2584,
      "Ġculture": 2585,
      "atives": 2586,
      "ronic": 2587,
      "duc": 2588,
      "Ġslow": 2589,
      "Ġvari": 2590,
      "ades": 2591,
      "Ġled": 2592,
      "aving": 2593,
      "Ġmach": 2594,
      "Ġtarget": 2595,
      "Ġsometimes": 2596,
      "Ġbelieve": 2597,
      "Ġspread": 2598,
      "rench": 2599,
      "Ġstandard": 2600,
      "AT": 2601,
      "ĠNo": 2602,
      "Ġfru": 2603,
      "ners": 2604,
      "Ġaverage": 2605,
      "Ġprec": 2606,
      "Ġpage": 2607,
      "amed": 2608,
      "Ġgreater": 2609,
      "Ġoriginal": 2610,
      "Ġeat": 2611,
      "rior": 2612,
      "Ġregular": 2613,
      "Ġorigin": 2614,
      "Ġlif": 2615,
      "Ġexc": 2616,
      "Ġcarbon": 2617,
      "lex": 2618,
      "osition": 2619,
      "ĠSec": 2620,
      "cil": 2621,
      "Ġmovement": 2622,
      "Ġissue": 2623,
      "rast": 2624,
      "ĠKing": 2625,
      "Ġscientists": 2626,
      "ufact": 2627,
      "Ġuses": 2628,
      "Ġfem": 2629,
      "uge": 2630,
      "Ġ194": 2631,
      "Ġevents": 2632,
      "Ġwild": 2633,
      "AR": 2634,
      "new": 2635,
      "arr": 2636,
      "ius": 2637,
      "Ġinvolved": 2638,
      "Ġdeep": 2639,
      "Ġreported": 2640,
      "ĠAustral": 2641,
      "Ġste": 2642,
      "Ġemb": 2643,
      "ender": 2644,
      "ervation": 2645,
      "umb": 2646,
      "Ġwritten": 2647,
      "Ġple": 2648,
      "ington": 2649,
      "Ġpsych": 2650,
      "But": 2651,
      "ĠPres": 2652,
      "ulate": 2653,
      "Ġmechan": 2654,
      "aling": 2655,
      "Ġdemon": 2656,
      "idge": 2657,
      "Ġencoura": 2658,
      "Ġidentify": 2659,
      "Ġsources": 2660,
      "aches": 2661,
      "Ġdoing": 2662,
      "Ġpict": 2663,
      "Ġdeveloping": 2664,
      "Ġcompan": 2665,
      "arily": 2666,
      "ĠScience": 2667,
      "rand": 2668,
      "Ġrefer": 2669,
      "Ġhelps": 2670,
      "Ġbacter": 2671,
      "Ġshare": 2672,
      "Ġfoods": 2673,
      "bor": 2674,
      "Ġrespect": 2675,
      "know": 2676,
      "Ġcamp": 2677,
      "Ġface": 2678,
      "eration": 2679,
      "Ġforms": 2680,
      "ĠPar": 2681,
      "Ġforest": 2682,
      "ief": 2683,
      "Ġimage": 2684,
      "Ġparticularly": 2685,
      "Ġtax": 2686,
      "Ġbasic": 2687,
      "Ġimplement": 2688,
      "Ġlack": 2689,
      "Ġdamage": 2690,
      "ength": 2691,
      "ials": 2692,
      "Ġstreng": 2693,
      "ĠPer": 2694,
      "Ġnormal": 2695,
      "ĠMin": 2696,
      "verse": 2697,
      "ĠIndia": 2698,
      "Ġpoor": 2699,
      "lies": 2700,
      "Ġresponse": 2701,
      "oor": 2702,
      "Ġoutside": 2703,
      "Ġcompet": 2704,
      "Ġsqu": 2705,
      "22": 2706,
      "Ġensure": 2707,
      "Ġlog": 2708,
      "ĠChina": 2709,
      "IN": 2710,
      "Ġattempt": 2711,
      "Ġlate": 2712,
      "Ġforce": 2713,
      "ana": 2714,
      "Ġharm": 2715,
      "Ġserious": 2716,
      "Ġgrowing": 2717,
      "isions": 2718,
      "ached": 2719,
      "Ġsust": 2720,
      "osure": 2721,
      "Ġattention": 2722,
      "Ġgenerally": 2723,
      "Ġremov": 2724,
      "Ġcoun": 2725,
      "rim": 2726,
      "Ġreview": 2727,
      "ctions": 2728,
      "Ġcompon": 2729,
      "Ġbal": 2730,
      "Ġproduced": 2731,
      "Ġwood": 2732,
      "Ġextreme": 2733,
      "ops": 2734,
      "Ġnetwork": 2735,
      "uth": 2736,
      "Ġinteg": 2737,
      "Ġvisit": 2738,
      "ĠAug": 2739,
      "Ġcust": 2740,
      "Ġmess": 2741,
      "Ġsafety": 2742,
      "Ġideas": 2743,
      "Ġap": 2744,
      "oles": 2745,
      "Ġcross": 2746,
      "Ġseries": 2747,
      "Ġdraw": 2748,
      "Ġaff": 2749,
      "ĠWill": 2750,
      "Ġemot": 2751,
      "Ġsou": 2752,
      "elling": 2753,
      "Ġteachers": 2754,
      "Ġchalleng": 2755,
      "ribution": 2756,
      "rated": 2757,
      "ĠEd": 2758,
      "Ġ--": 2759,
      "set": 2760,
      "Ġessential": 2761,
      "Ġconsist": 2762,
      "ulated": 2763,
      "Ġago": 2764,
      "Ġveget": 2765,
      "Ġprobably": 2766,
      "Ġwebs": 2767,
      "oly": 2768,
      "Ġcorrect": 2769,
      "imum": 2770,
      "vention": 2771,
      "Ġfa": 2772,
      "Ġlat": 2773,
      "erg": 2774,
      "Ġmother": 2775,
      "ĠJes": 2776,
      "Ġnumbers": 2777,
      "rie": 2778,
      "osing": 2779,
      "Ġfeet": 2780,
      "ĠCenter": 2781,
      "Ġsea": 2782,
      "Ġexpress": 2783,
      "Ġcommit": 2784,
      "25": 2785,
      "Ġcontinue": 2786,
      "Ġinternational": 2787,
      "irit": 2788,
      "ĠCount": 2789,
      "ĠMe": 2790,
      "Ġpatient": 2791,
      "Ġdeb": 2792,
      "Ġattack": 2793,
      "Ġox": 2794,
      "ecause": 2795,
      "ming": 2796,
      "Ġselect": 2797,
      "Ġir": 2798,
      "ĠJan": 2799,
      "Ġprep": 2800,
      "haps": 2801,
      "erson": 2802,
      "ha": 2803,
      "Ġdefin": 2804,
      "ĠJu": 2805,
      "ĠApp": 2806,
      "ided": 2807,
      "Ġcit": 2808,
      "room": 2809,
      "Ġelectric": 2810,
      "On": 2811,
      "Ġincluded": 2812,
      "ĠPart": 2813,
      "Ġ24": 2814,
      "Ġanimal": 2815,
      "Ġpolicy": 2816,
      "Ġindepend": 2817,
      "uary": 2818,
      "Ġmanufact": 2819,
      "Ġgetting": 2820,
      "ror": 2821,
      "Ġcover": 2822,
      "where": 2823,
      "Ġtherefore": 2824,
      "ON": 2825,
      "Ġdispl": 2826,
      "Ġaware": 2827,
      "ls": 2828,
      "ems": 2829,
      "Ġvirus": 2830,
      "Ġthus": 2831,
      "Ġnight": 2832,
      "cies": 2833,
      "Ġtakes": 2834,
      "Ġdou": 2835,
      "IS": 2836,
      "raft": 2837,
      "ĠMany": 2838,
      "Ġdiv": 2839,
      "Ġfinanc": 2840,
      "yr": 2841,
      "ĠQu": 2842,
      "fect": 2843,
      "Ġleaders": 2844,
      "Ġinstead": 2845,
      "ground": 2846,
      "ĠInt": 2847,
      "Ġkids": 2848,
      "issions": 2849,
      "Ġconcent": 2850,
      "abetes": 2851,
      "oes": 2852,
      "ties": 2853,
      "Ġsomeone": 2854,
      "Ġlooking": 2855,
      "overy": 2856,
      "Ġeth": 2857,
      "OR": 2858,
      "iforn": 2859,
      "Ġdoesn": 2860,
      "ĠPre": 2861,
      "inks": 2862,
      "Ġmagn": 2863,
      "iot": 2864,
      "Ġ/": 2865,
      "Ġvit": 2866,
      "ying": 2867,
      "itude": 2868,
      "Ġtraditional": 2869,
      "ĠEduc": 2870,
      "Ġdang": 2871,
      "na": 2872,
      "Ġinstit": 2873,
      "Ġhyd": 2874,
      "Ġdaily": 2875,
      "Ġtown": 2876,
      "asons": 2877,
      "Ġestablished": 2878,
      "Ġcommunities": 2879,
      "Ġestim": 2880,
      "Ġquite": 2881,
      "Ġeasily": 2882,
      "ography": 2883,
      "Ġful": 2884,
      "Ġprint": 2885,
      "Ġsecurity": 2886,
      "rew": 2887,
      "www": 2888,
      "cell": 2889,
      "ĠCons": 2890,
      "ext": 2891,
      "ĠBo": 2892,
      "Ġwall": 2893,
      "Ġdetermine": 2894,
      "ĠFrench": 2895,
      "Ġpoints": 2896,
      "ino": 2897,
      "Ġbooks": 2898,
      "ĠMore": 2899,
      "useum": 2900,
      "ads": 2901,
      "Ġdifference": 2902,
      "Ġheld": 2903,
      "ĠAg": 2904,
      "Ġadded": 2905,
      "Ġthird": 2906,
      "Ġcompared": 2907,
      "hel": 2908,
      "ension": 2909,
      "Ġinvestig": 2910,
      "Ġspeed": 2911,
      "Ġstarted": 2912,
      "ĠInstitute": 2913,
      "Ġappropri": 2914,
      "Ġ2010": 2915,
      "Ġtools": 2916,
      "Ġscientific": 2917,
      "Ġsolar": 2918,
      "Ġmilitary": 2919,
      "Ġtheory": 2920,
      "Ġprimary": 2921,
      "Ġtree": 2922,
      "Ġunique": 2923,
      "Ġthous": 2924,
      "ifornia": 2925,
      "____": 2926,
      "ĠRuss": 2927,
      "Ġcapt": 2928,
      "Ġtur": 2929,
      "Ġcolon": 2930,
      "Ġbab": 2931,
      "Ġcivil": 2932,
      "anks": 2933,
      "Ġ40": 2934,
      "Ġimmedi": 2935,
      "ceed": 2936,
      "ĠDepartment": 2937,
      "Ġwarm": 2938,
      "Ġreve": 2939,
      "Ġlarger": 2940,
      "ille": 2941,
      "Ġallows": 2942,
      "ĠAc": 2943,
      "Ġreflect": 2944,
      "ounds": 2945,
      "Ġnation": 2946,
      "Ġdiseases": 2947,
      "Ġfav": 2948,
      "Ġfront": 2949,
      "Ġmental": 2950,
      "Ġinside": 2951,
      "Ġvacc": 2952,
      "Ġperformance": 2953,
      "Ġachieve": 2954,
      "ĠGerman": 2955,
      "Ġdirectly": 2956,
      "ift": 2957,
      "Ġcompanies": 2958,
      "con": 2959,
      "ancy": 2960,
      "AN": 2961,
      "rate": 2962,
      "ĠEl": 2963,
      "Ġeval": 2964,
      "Ġprogress": 2965,
      "ĠEuropean": 2966,
      "Ġquickly": 2967,
      "undred": 2968,
      "Ġaltern": 2969,
      "ĠMost": 2970,
      "olec": 2971,
      "orks": 2972,
      "Ġ2012": 2973,
      "ellow": 2974,
      "ĠYour": 2975,
      "Ġmultiple": 2976,
      "Ġoffer": 2977,
      "Ġbit": 2978,
      "elt": 2979,
      "Ġdemonstr": 2980,
      "Ġtrees": 2981,
      "hern": 2982,
      "ĠIndian": 2983,
      "Ġsil": 2984,
      "Ġeye": 2985,
      "Ġfamilies": 2986,
      "Ġnegative": 2987,
      "rs": 2988,
      "Ġspeak": 2989,
      "Ġfoot": 2990,
      "21": 2991,
      "Ġbirth": 2992,
      "Ġadditional": 2993,
      "lied": 2994,
      "Ġhumans": 2995,
      "Ġseems": 2996,
      "Ġdoctor": 2997,
      "Ġsold": 2998,
      "Ġtiss": 2999,
      "Ġactive": 3000,
      "Ġdecre": 3001,
      "Ġaspect": 3002,
      "Ġdocument": 3003,
      "Ġhar": 3004,
      "Ġalthough": 3005,
      "Ġbehind": 3006,
      "Ġaud": 3007,
      "ĠArt": 3008,
      "Ġtri": 3009,
      "Ġtend": 3010,
      "Ġhighly": 3011,
      "Ġrout": 3012,
      "thern": 3013,
      "23": 3014,
      "ĠGl": 3015,
      "Ġexercise": 3016,
      "Ġwent": 3017,
      "Ġinfection": 3018,
      "Ġanswer": 3019,
      "gency": 3020,
      "uries": 3021,
      "joy": 3022,
      "mar": 3023,
      "ĠCalifornia": 3024,
      "den": 3025,
      "Ġgard": 3026,
      "pril": 3027,
      "cean": 3028,
      "Ġinterp": 3029,
      "iency": 3030,
      "Ġsevere": 3031,
      "Ġwalk": 3032,
      "pe": 3033,
      "Ġdry": 3034,
      "yond": 3035,
      "Ġtransport": 3036,
      "Ġhabit": 3037,
      "Ġextra": 3038,
      "Ġhttp": 3039,
      "Ġhor": 3040,
      "One": 3041,
      "Ġi": 3042,
      "Ġnucle": 3043,
      "Ġsoon": 3044,
      "Ġcritical": 3045,
      "oming": 3046,
      "uman": 3047,
      "Ġproced": 3048,
      "rition": 3049,
      "Ġelements": 3050,
      "Ġbeginning": 3051,
      "iber": 3052,
      "Ġhost": 3053,
      "Ġcentral": 3054,
      "nov": 3055,
      "Ġfram": 3056,
      "Ġteaching": 3057,
      "IC": 3058,
      "ĠMarch": 3059,
      "ĠJune": 3060,
      "ĠChristian": 3061,
      "term": 3062,
      "Ġacid": 3063,
      "iques": 3064,
      "ĠOct": 3065,
      "olar": 3066,
      "Ġwhose": 3067,
      "Ġlabor": 3068,
      "Ġbroad": 3069,
      "formation": 3070,
      "Ġprior": 3071,
      "orthern": 3072,
      "Ġnorth": 3073,
      "He": 3074,
      "rig": 3075,
      "Ġ2011": 3076,
      "Ġdrink": 3077,
      "Ġbase": 3078,
      "iers": 3079,
      "aly": 3080,
      "ilos": 3081,
      "ĠAfrican": 3082,
      "Ġsupply": 3083,
      "Ġleading": 3084,
      "iter": 3085,
      "Ġhot": 3086,
      "ĠHar": 3087,
      "Ġvideo": 3088,
      "ĠWest": 3089,
      "Ġanaly": 3090,
      "ĠChar": 3091,
      "Ġancient": 3092,
      "ĠJesus": 3093,
      "Ġtowards": 3094,
      "ĠAugust": 3095,
      "vant": 3096,
      "rogen": 3097,
      "Ġsus": 3098,
      "ĠInternational": 3099,
      "ĠRec": 3100,
      "Ġthinking": 3101,
      "ĠOther": 3102,
      "Ġlimited": 3103,
      "ims": 3104,
      "lier": 3105,
      "Ġelse": 3106,
      "ĠAfrica": 3107,
      "Ġstay": 3108,
      "Ġprotection": 3109,
      "Ġvalues": 3110,
      "omet": 3111,
      "Ġdecl": 3112,
      "Ġbad": 3113,
      "âĢ¢": 3114,
      "Ġlost": 3115,
      "Ġpurpose": 3116,
      "Ġuseful": 3117,
      "ĠCO": 3118,
      "Ġprotein": 3119,
      "ĠSm": 3120,
      "cks": 3121,
      "coh": 3122,
      "Ġord": 3123,
      "ĠCor": 3124,
      "So": 3125,
      "Ġstri": 3126,
      "40": 3127,
      "Ġobt": 3128,
      "Ġexpect": 3129,
      "ĠNot": 3130,
      "Ġsection": 3131,
      "see": 3132,
      "inese": 3133,
      "ĠChild": 3134,
      "Ġclin": 3135,
      "Ġcapital": 3136,
      "Ġlargest": 3137,
      "Ġcard": 3138,
      "ĠHer": 3139,
      "Ġcontribut": 3140,
      "ĠOf": 3141,
      "ĠAlthough": 3142,
      "lation": 3143,
      "Ġmount": 3144,
      "Ġminutes": 3145,
      "Ġsituation": 3146,
      "Ġcustom": 3147,
      "ils": 3148,
      "Ġdark": 3149,
      "Ġcontains": 3150,
      "Ġaccur": 3151,
      "ĠGree": 3152,
      "Ġimages": 3153,
      "wise": 3154,
      "Ġnews": 3155,
      "ĠSept": 3156,
      "Ġprivate": 3157,
      "isms": 3158,
      "Ġdescribed": 3159,
      "Ġblock": 3160,
      "Ġdecision": 3161,
      "Ġadminist": 3162,
      "Ġbrought": 3163,
      "Ġfeatures": 3164,
      "oring": 3165,
      "Ġhundred": 3166,
      "Ġmom": 3167,
      "Ġfight": 3168,
      "istry": 3169,
      "ologies": 3170,
      "ching": 3171,
      "ran": 3172,
      "ĠHistory": 3173,
      "Ġstrateg": 3174,
      "Ġjo": 3175,
      "ĠBar": 3176,
      "hens": 3177,
      "Ġcred": 3178,
      "Ġsymb": 3179,
      "Ġunc": 3180,
      "sect": 3181,
      "Ġcapac": 3182,
      "rote": 3183,
      "Ġfast": 3184,
      "Ġsearch": 3185,
      "Ġjud": 3186,
      "iles": 3187,
      "ields": 3188,
      "Ġfinancial": 3189,
      "Ġreceived": 3190,
      "Ġones": 3191,
      "Ġadults": 3192,
      "Ġgame": 3193,
      "lection": 3194,
      "Ġdisp": 3195,
      "ashington": 3196,
      "Ġagricult": 3197,
      "ĠMon": 3198,
      "ĠJuly": 3199,
      "IV": 3200,
      "hest": 3201,
      "Ġinfluence": 3202,
      "gn": 3203,
      "Ġremains": 3204,
      "Ġhands": 3205,
      "fort": 3206,
      "ription": 3207,
      "Ġstra": 3208,
      "Ġ,": 3209,
      "come": 3210,
      "izations": 3211,
      "Ġgoal": 3212,
      "Ġadop": 3213,
      "Ġsoftware": 3214,
      "ĠDav": 3215,
      "Ġenjoy": 3216,
      "Ġmill": 3217,
      "Ġsustain": 3218,
      "And": 3219,
      "mission": 3220,
      "Ġpack": 3221,
      "omb": 3222,
      "Ġquant": 3223,
      "ĠUs": 3224,
      "imin": 3225,
      "AS": 3226,
      "Ġshall": 3227,
      "ibrary": 3228,
      "Ġexact": 3229,
      "Ġagree": 3230,
      "ĠPress": 3231,
      "199": 3232,
      "Ġreligious": 3233,
      "60": 3234,
      "Ġlength": 3235,
      "used": 3236,
      "Ġrates": 3237,
      "bit": 3238,
      "ĠMus": 3239,
      "Ġx": 3240,
      "Ġwrite": 3241,
      "inct": 3242,
      "Ġgot": 3243,
      "Ġrequires": 3244,
      "udd": 3245,
      "Ġcarry": 3246,
      "Ġestablish": 3247,
      "At": 3248,
      "Ġworkers": 3249,
      "Ġnearly": 3250,
      "ĠTra": 3251,
      "Ġsouth": 3252,
      "Ġlaws": 3253,
      "ĠSch": 3254,
      "arian": 3255,
      "Ġapplication": 3256,
      "Ġlocated": 3257,
      "pper": 3258,
      "Ġang": 3259,
      "ĠRiver": 3260,
      "equ": 3261,
      "Ġseason": 3262,
      "med": 3263,
      "Ġ21": 3264,
      "Ġ2009": 3265,
      "Ġreach": 3266,
      "Ġplaces": 3267,
      "ĠReg": 3268,
      "Ġbecomes": 3269,
      "ĠServ": 3270,
      "ĠKe": 3271,
      "att": 3272,
      "âĢĿ.": 3273,
      "Ġdemand": 3274,
      "Ġlines": 3275,
      "estic": 3276,
      "ĠFirst": 3277,
      "Ġcool": 3278,
      "Ġwa": 3279,
      "Ġexcept": 3280,
      "uk": 3281,
      "oud": 3282,
      "Ġefforts": 3283,
      "Ġbeaut": 3284,
      "eal": 3285,
      "Ġtests": 3286,
      "80": 3287,
      "odies": 3288,
      "aid": 3289,
      "idents": 3290,
      "ĠProg": 3291,
      "ĠAnt": 3292,
      "ĠRet": 3293,
      "Ġweeks": 3294,
      "Ġfederal": 3295,
      "ĠAmericans": 3296,
      "Ġimportance": 3297,
      "Ġegg": 3298,
      "Ġdevices": 3299,
      "ĠTw": 3300,
      "life": 3301,
      "Ġrare": 3302,
      "Ġsn": 3303,
      "Ġremain": 3304,
      "PA": 3305,
      "Ġvict": 3306,
      "vest": 3307,
      "ira": 3308,
      "ĠHere": 3309,
      "Ġstru": 3310,
      "ĠCong": 3311,
      "Ġdead": 3312,
      "itis": 3313,
      "Ġprojects": 3314,
      "Ġfather": 3315,
      "Ġmention": 3316,
      "Ġcoast": 3317,
      "rag": 3318,
      "ĠApril": 3319,
      "Ġhimself": 3320,
      "oke": 3321,
      "Ġtold": 3322,
      "itect": 3323,
      "Ġimag": 3324,
      "Ġcitiz": 3325,
      "rael": 3326,
      "Ġleaves": 3327,
      "Ġult": 3328,
      "Ġcosts": 3329,
      "entially": 3330,
      "atur": 3331,
      "Ġep": 3332,
      "Ġbasis": 3333,
      "Ġsurround": 3334,
      "'re": 3335,
      "ipment": 3336,
      "ĠChinese": 3337,
      "Ġmiles": 3338,
      "cial": 3339,
      "ĠAssoci": 3340,
      "Ġappropriate": 3341,
      "alt": 3342,
      "Ġrespond": 3343,
      "Ġbacteria": 3344,
      "imal": 3345,
      "ĠEngland": 3346,
      "year": 3347,
      "Ġsaw": 3348,
      "Ġsolution": 3349,
      "Ġsummer": 3350,
      "Ġwaste": 3351,
      "Ġcommunication": 3352,
      "cles": 3353,
      "cohol": 3354,
      "Ġsugar": 3355,
      "Ġrapid": 3356,
      "ĠCity": 3357,
      "uous": 3358,
      "ĠSw": 3359,
      "Ġveh": 3360,
      "EN": 3361,
      "Ġwebsite": 3362,
      "Ġeating": 3363,
      "Ġfit": 3364,
      "Ġproperty": 3365,
      "Ġpan": 3366,
      "ĠGovern": 3367,
      "Ġborn": 3368,
      "Ġcommand": 3369,
      "aul": 3370,
      "ham": 3371,
      "Ġsites": 3372,
      "Ġcenter": 3373,
      "Ġtechniques": 3374,
      "Ġmemory": 3375,
      "Ġprocesses": 3376,
      "Ġtypically": 3377,
      "alled": 3378,
      "ĠMc": 3379,
      "iece": 3380,
      "24": 3381,
      "Ġfriends": 3382,
      "Ġdevice": 3383,
      "Ġeyes": 3384,
      "Ġdigital": 3385,
      "Ġnothing": 3386,
      "izes": 3387,
      "Ġanything": 3388,
      "uments": 3389,
      "resh": 3390,
      "ĠFrom": 3391,
      "Ġtable": 3392,
      "Ġforces": 3393,
      "water": 3394,
      "iar": 3395,
      "ĠCanada": 3396,
      "cember": 3397,
      "ype": 3398,
      "Ġlegal": 3399,
      "Ġhope": 3400,
      "Ġdied": 3401,
      "ama": 3402,
      "ĠDay": 3403,
      "Ġapplications": 3404,
      "Ġcultural": 3405,
      "Ġhous": 3406,
      "ĠMy": 3407,
      "ovember": 3408,
      "Ġcou": 3409,
      "Ġtesting": 3410,
      "Ġcreating": 3411,
      "Ġpractices": 3412,
      "ĠPresident": 3413,
      "Ġresponsible": 3414,
      "ĠEducation": 3415,
      "back": 3416,
      "Ġadj": 3417,
      "Ġgives": 3418,
      "Ġmonitor": 3419,
      "aught": 3420,
      "Ġadapt": 3421,
      "Ġeverything": 3422,
      "Ġcrop": 3423,
      "ĠWashington": 3424,
      "Ġ2013": 3425,
      "Ġconstruction": 3426,
      "uro": 3427,
      "ondon": 3428,
      "ED": 3429,
      "Ġtit": 3430,
      "Ġteacher": 3431,
      "Ġdiabetes": 3432,
      "Ġanti": 3433,
      "Ġson": 3434,
      "Ġbeyond": 3435,
      "Ġder": 3436,
      "Ġfollowed": 3437,
      "ixed": 3438,
      "apter": 3439,
      "Ġ2008": 3440,
      "These": 3441,
      "Ġspirit": 3442,
      "ĠJournal": 3443,
      "Ġking": 3444,
      "Ġbenefit": 3445,
      "ĠEc": 3446,
      "Ġpen": 3447,
      "Ġobjects": 3448,
      "Ġtherapy": 3449,
      "iples": 3450,
      "Ġconstit": 3451,
      "ipl": 3452,
      "Ġolder": 3453,
      "Ġcam": 3454,
      "Ġbul": 3455,
      "IT": 3456,
      "Ġmolec": 3457,
      "Ġcommunic": 3458,
      "Ġrecently": 3459,
      "Ġasked": 3460,
      "Ġinsp": 3461,
      "Ġmiddle": 3462,
      "Ġdepend": 3463,
      "Ġfinal": 3464,
      "anish": 3465,
      "exic": 3466,
      "edia": 3467,
      "Ġreasons": 3468,
      "Ġadvant": 3469,
      "sec": 3470,
      "head": 3471,
      "Ġguid": 3472,
      "ĠWilliam": 3473,
      "king": 3474,
      "enge": 3475,
      "Ġchoose": 3476,
      "Ġconnect": 3477,
      "Ġweb": 3478,
      "Ġgradu": 3479,
      "mosp": 3480,
      "ford": 3481,
      "Ġexamples": 3482,
      "Ġexpected": 3483,
      "Ġcele": 3484,
      "ĠChurch": 3485,
      "Ġbott": 3486,
      "Ġmid": 3487,
      "Ġcontroll": 3488,
      "Ġeconomy": 3489,
      "Ġbreat": 3490,
      "Ġfuel": 3491,
      "ĠJanuary": 3492,
      "Ġfear": 3493,
      "Ġproviding": 3494,
      "Ġcold": 3495,
      "Ġautom": 3496,
      "By": 3497,
      "Ġice": 3498,
      "ests": 3499,
      "Ġten": 3500,
      "Ġ2007": 3501,
      "ĠFeb": 3502,
      "Ġconsequ": 3503,
      "Ġbehavi": 3504,
      ");": 3505,
      "ocol": 3506,
      "ĠSeptember": 3507,
      "ĠIsrael": 3508,
      "Ġsmaller": 3509,
      "ĠTechn": 3510,
      "Ġdate": 3511,
      "ĠGreat": 3512,
      "Ġtrade": 3513,
      "illing": 3514,
      "strial": 3515,
      "Ġ:": 3516,
      "Ġorganization": 3517,
      "ĠPol": 3518,
      "ogen": 3519,
      "Ġreceive": 3520,
      "Ġcra": 3521,
      "ĠPark": 3522,
      "Ġstandards": 3523,
      "ev": 3524,
      "lin": 3525,
      "ellig": 3526,
      "Ġinstru": 3527,
      "Ġcode": 3528,
      "ought": 3529,
      "Ġaffected": 3530,
      "Ġopportunity": 3531,
      "amb": 3532,
      "ĠOctober": 3533,
      "ĠDevelop": 3534,
      "Ġund": 3535,
      "Ġfile": 3536,
      "Ġstage": 3537,
      "book": 3538,
      "Ġscreen": 3539,
      "Ġcompletely": 3540,
      "ony": 3541,
      "Ġscale": 3542,
      "Ġrules": 3543,
      "With": 3544,
      "ribute": 3545,
      "Ġrain": 3546,
      "Ġplanet": 3547,
      "Ġ23": 3548,
      "ĠDis": 3549,
      "Ġcurrently": 3550,
      "Ġcru": 3551,
      "ula": 3552,
      "ica": 3553,
      "men": 3554,
      "Ġformer": 3555,
      "Ġcontinued": 3556,
      "Ġlocation": 3557,
      "AC": 3558,
      "ĠEven": 3559,
      "Ġexposure": 3560,
      "Ġsett": 3561,
      "ĠRoman": 3562,
      "Ġtrying": 3563,
      "Ġdegree": 3564,
      "Ġeffort": 3565,
      "edom": 3566,
      "Ġdifferences": 3567,
      "Ġdestro": 3568,
      "itable": 3569,
      "Ġwrote": 3570,
      "Ġbeg": 3571,
      "Ġpet": 3572,
      "Ġneigh": 3573,
      "ĠInc": 3574,
      "While": 3575,
      "Ġalone": 3576,
      "ĠLear": 3577,
      "ocr": 3578,
      "Ġgoes": 3579,
      "ari": 3580,
      "Ġapprox": 3581,
      "Ġroom": 3582,
      "Ex": 3583,
      "Ġwoman": 3584,
      "Ġshape": 3585,
      "Ġsuccessful": 3586,
      "Ġyourself": 3587,
      "ĠCom": 3588,
      "ĠCoun": 3589,
      "Ġuser": 3590,
      "ĠSan": 3591,
      "Ġbirds": 3592,
      "can": 3593,
      "Ġwinter": 3594,
      "Ġcollection": 3595,
      "Ġbillion": 3596,
      "Ġequipment": 3597,
      "ĠSystem": 3598,
      "rees": 3599,
      "Ġteach": 3600,
      "ocks": 3601,
      "ĠEast": 3602,
      "load": 3603,
      "Ġmember": 3604,
      "Ġoccurs": 3605,
      "Ġwon": 3606,
      "Ġdrugs": 3607,
      "ĠBi": 3608,
      "Ġeveryone": 3609,
      "vert": 3610,
      "ĠVal": 3611,
      "ingu": 3612,
      "oe": 3613,
      "emy": 3614,
      "ĠOur": 3615,
      "ĠAccording": 3616,
      "Ġoccup": 3617,
      "Ġconflic": 3618,
      "Ġearlier": 3619,
      "aur": 3620,
      "tery": 3621,
      "Ġmodels": 3622,
      "ĠTrans": 3623,
      "lamm": 3624,
      "ĠIS": 3625,
      "Ġleave": 3626,
      "ĠLaw": 3627,
      "Ġvia": 3628,
      "su": 3629,
      "off": 3630,
      "Ġteeth": 3631,
      "Ġ60": 3632,
      "Ġrecommend": 3633,
      "Ġinteresting": 3634,
      "airs": 3635,
      "Ġast": 3636,
      "ords": 3637,
      "ĠCounty": 3638,
      "ĠArch": 3639,
      "time": 3640,
      "Ġ193": 3641,
      "ĠCommun": 3642,
      "Ġnamed": 3643,
      "Ġcommonly": 3644,
      "Ġconstant": 3645,
      "Ġusers": 3646,
      "Ġpregn": 3647,
      "Ġsequ": 3648,
      "Ġprofessional": 3649,
      "Ġelectr": 3650,
      "Ġswe": 3651,
      "Ġmiss": 3652,
      "aters": 3653,
      "Ġrock": 3654,
      "Ġpoly": 3655,
      "mitted": 3656,
      "ĠMexic": 3657,
      "Ġdeal": 3658,
      "Ġsch": 3659,
      "Ġstrength": 3660,
      "ensity": 3661,
      "26": 3662,
      "Ġmeasures": 3663,
      "ding": 3664,
      "oday": 3665,
      "ĠDecember": 3666,
      "Ġpurch": 3667,
      "Ġgenetic": 3668,
      "Ġhon": 3669,
      "Ġplaced": 3670,
      "Ġmaintain": 3671,
      "ospital": 3672,
      "rec": 3673,
      "Ġdiscovered": 3674,
      "urg": 3675,
      "ĠNovember": 3676,
      "Ġoverall": 3677,
      "hemat": 3678,
      "Ġcourt": 3679,
      "Ġformed": 3680,
      "Ġhyp": 3681,
      "Ġeight": 3682,
      "Ġden": 3683,
      "gypt": 3684,
      "Ġallowed": 3685,
      "wide": 3686,
      "Ġvisual": 3687,
      "ĠHigh": 3688,
      "Ġfruit": 3689,
      "ĠThen": 3690,
      "27": 3691,
      "Ġwond": 3692,
      "ĠRed": 3693,
      "Ġgir": 3694,
      "Ġreduced": 3695,
      "Ġperfect": 3696,
      "more": 3697,
      "Ġperhaps": 3698,
      "Ġapplied": 3699,
      "Ġrule": 3700,
      "irection": 3701,
      "ĠVir": 3702,
      "Ġchurch": 3703,
      "ruary": 3704,
      "Ġpredict": 3705,
      "Ġweather": 3706,
      "Ġrise": 3707,
      "Ġmax": 3708,
      "ĠLondon": 3709,
      "Ġsteps": 3710,
      "ibly": 3711,
      "Ġhistorical": 3712,
      "Ġcateg": 3713,
      "ara": 3714,
      "ky": 3715,
      "29": 3716,
      "amic": 3717,
      "ĠBr": 3718,
      "ĠSim": 3719,
      "ĠSociety": 3720,
      "Ġpow": 3721,
      "Ġisn": 3722,
      "Ġexec": 3723,
      "Ġvirt": 3724,
      "Ġcommerc": 3725,
      "ĠBlack": 3726,
      "Ġpowerful": 3727,
      "Ġrich": 3728,
      "ĠRead": 3729,
      "Ġenter": 3730,
      "Ġidentified": 3731,
      "Ġgave": 3732,
      "osy": 3733,
      "Ġcontext": 3734,
      "Ġroad": 3735,
      "Ġcoming": 3736,
      "AL": 3737,
      "Ġmis": 3738,
      "Pro": 3739,
      "Ġmajority": 3740,
      "ĠDuring": 3741,
      "iable": 3742,
      "Ġacqu": 3743,
      "Ġsect": 3744,
      "phas": 3745,
      "uff": 3746,
      "Ġvill": 3747,
      "rieved": 3748,
      "Ġtrack": 3749,
      "Ġenh": 3750,
      "Ġpresence": 3751,
      "odes": 3752,
      "Some": 3753,
      "unch": 3754,
      "Ġstatus": 3755,
      "Ġfair": 3756,
      "Ġdidn": 3757,
      "Ġshowed": 3758,
      "Ġtox": 3759,
      "Ġrelatively": 3760,
      "Ġdisplay": 3761,
      "oration": 3762,
      "orge": 3763,
      "itch": 3764,
      "Ġtele": 3765,
      "Ġsymbol": 3766,
      "Ġjoint": 3767,
      "reet": 3768,
      "iful": 3769,
      "related": 3770,
      "bl": 3771,
      "Ġnote": 3772,
      "Ġactions": 3773,
      "Ġcook": 3774,
      "EC": 3775,
      "Ġillness": 3776,
      "Ġemp": 3777,
      "ĠInst": 3778,
      "ees": 3779,
      "ament": 3780,
      "ĠPat": 3781,
      "Ġfully": 3782,
      "aled": 3783,
      "Ġincreases": 3784,
      "Ġatmosp": 3785,
      "II": 3786,
      "ĠAlso": 3787,
      "Ġcry": 3788,
      "Ġtou": 3789,
      "Ġunit": 3790,
      "Ġversion": 3791,
      "encies": 3792,
      "bre": 3793,
      "Ġassign": 3794,
      "aint": 3795,
      "Ġcities": 3796,
      "ĠBecause": 3797,
      "Ġnutri": 3798,
      "known": 3799,
      "Ġriver": 3800,
      "70": 3801,
      "Ġphilos": 3802,
      "Ġgold": 3803,
      "co": 3804,
      "Ġelement": 3805,
      "Ġchoice": 3806,
      "ros": 3807,
      "Ġsitu": 3808,
      "Ġmob": 3809,
      "Ġbelief": 3810,
      "ĠGeneral": 3811,
      "ĠWater": 3812,
      "Ġmoving": 3813,
      "\",": 3814,
      "ĠProt": 3815,
      "Ġrob": 3816,
      "Ġmouth": 3817,
      "oted": 3818,
      "que": 3819,
      "Ġevolution": 3820,
      "Ġremember": 3821,
      "ĠDNA": 3822,
      "ĠAustralia": 3823,
      "Ġ195": 3824,
      "Ġantib": 3825,
      "ste": 3826,
      "Ġillust": 3827,
      "Ġappears": 3828,
      "Ġasse": 3829,
      "iate": 3830,
      "enty": 3831,
      "Ġpatterns": 3832,
      "Ġworked": 3833,
      "Ġlimit": 3834,
      "ĠHouse": 3835,
      "ĠNow": 3836,
      "Ġproperties": 3837,
      "resp": 3838,
      "Ġcapacity": 3839,
      "Ġcompar": 3840,
      "rab": 3841,
      "ĠMod": 3842,
      "iences": 3843,
      "Ġpiece": 3844,
      "Ġmachine": 3845,
      "ĠJust": 3846,
      "28": 3847,
      "Ġmig": 3848,
      "ĠSince": 3849,
      "Ġpeace": 3850,
      "Ġalcohol": 3851,
      "Ġconstruct": 3852,
      "Ġworth": 3853,
      "Ġnames": 3854,
      "force": 3855,
      "Ġstrugg": 3856,
      "Ġmoment": 3857,
      "Ġtransfer": 3858,
      "Ġsigns": 3859,
      "ĠCour": 3860,
      "craft": 3861,
      "inated": 3862,
      "rief": 3863,
      "ĠGermany": 3864,
      "aign": 3865,
      "Ġassist": 3866,
      "Ġimmune": 3867,
      "Ġstories": 3868,
      "Ġmut": 3869,
      "ĠEgypt": 3870,
      "Ġ28": 3871,
      "Ġchanged": 3872,
      "Ġvo": 3873,
      "Ġmission": 3874,
      "âĢĿ,": 3875,
      "Ġefficient": 3876,
      "ĠFin": 3877,
      "Ġarchitect": 3878,
      "cious": 3879,
      "ĠCongress": 3880,
      "Ġforward": 3881,
      "Ġexpand": 3882,
      "Ġfresh": 3883,
      "Ġrat": 3884,
      "Un": 3885,
      "Ġoffers": 3886,
      "Ġfunctions": 3887,
      "Ġsurvey": 3888,
      "Ġbaby": 3889,
      "Ġconvers": 3890,
      "Ġball": 3891,
      "Ġbreast": 3892,
      "Ġwid": 3893,
      "Ġacad": 3894,
      "Ġgiving": 3895,
      "house": 3896,
      "Ġanx": 3897,
      "Ġincor": 3898,
      "ĠCouncil": 3899,
      "Ġexisting": 3900,
      "aste": 3901,
      "gery": 3902,
      "Ġeducational": 3903,
      "Ġinsect": 3904,
      "Ġsurpr": 3905,
      "Ġattract": 3906,
      "asion": 3907,
      "abilities": 3908,
      "eech": 3909,
      "ĠUse": 3910,
      "ĠAssociation": 3911,
      "Ġcitizens": 3912,
      "ĠPhil": 3913,
      "ternal": 3914,
      "ĠPeople": 3915,
      "Ġequal": 3916,
      "ĠMedic": 3917,
      "ĠAre": 3918,
      "ĠConf": 3919,
      "rehens": 3920,
      "Ġfemale": 3921,
      "Ġinstance": 3922,
      "rupt": 3923,
      "ĠFl": 3924,
      "Ġ2000": 3925,
      "Ġpp": 3926,
      "ĠSur": 3927,
      "Ġfindings": 3928,
      "Ġstaff": 3929,
      "Ġfactor": 3930,
      "Ġopportunities": 3931,
      "iny": 3932,
      "Ġtissue": 3933,
      "Ġrunning": 3934,
      "ĠEnvironment": 3935,
      "Ġdat": 3936,
      "Ġassum": 3937,
      "icip": 3938,
      "Ġregions": 3939,
      "omas": 3940,
      "Ġchallenges": 3941,
      "Ġdirection": 3942,
      "ession": 3943,
      "Ġforeign": 3944,
      "Ġdistance": 3945,
      "Ġbound": 3946,
      "Ġmuscle": 3947,
      "ĠRo": 3948,
      "Ġthousands": 3949,
      "ĠJewish": 3950,
      "iox": 3951,
      "Ġweak": 3952,
      "yd": 3953,
      "iring": 3954,
      "uls": 3955,
      "Ġrepe": 3956,
      "ographic": 3957,
      "Ġpicture": 3958,
      "do": 3959,
      "rick": 3960,
      "Ġdetails": 3961,
      "ero": 3962,
      "Ġdefined": 3963,
      "Ġ26": 3964,
      "Ġprice": 3965,
      "Ġexplain": 3966,
      "atin": 3967,
      "Ġhuge": 3968,
      "Ġing": 3969,
      "Ġ2006": 3970,
      "OS": 3971,
      "Ġcomponents": 3972,
      "che": 3973,
      "Ġchance": 3974,
      "ĠUnion": 3975,
      "ĠAng": 3976,
      "Ġinnov": 3977,
      "Ġnative": 3978,
      "Ġincome": 3979,
      "Ġtask": 3980,
      "Ġlearned": 3981,
      "Ġwatch": 3982,
      "All": 3983,
      "Ġbelieved": 3984,
      "Ad": 3985,
      "ĠTur": 3986,
      "à¤": 3987,
      "Ġevalu": 3988,
      "Ġdetect": 3989,
      "Ġfert": 3990,
      "Ġfigure": 3991,
      "Ġfriend": 3992,
      "Ġbox": 3993,
      "ĠFebruary": 3994,
      "Ġwrong": 3995,
      "part": 3996,
      "ĠProf": 3997,
      "Ġqual": 3998,
      "Ġemissions": 3999,
      "Ġdisorder": 4000,
      "ifically": 4001,
      "Ġstar": 4002,
      "Ġoffice": 4003,
      "ĠProgram": 4004,
      "Ġreports": 4005,
      "Ġsuggests": 4006,
      "Ġjournal": 4007,
      "Ġgarden": 4008,
      "ĠSee": 4009,
      "ĠFrance": 4010,
      "pective": 4011,
      "Ġstim": 4012,
      "ĠTheir": 4013,
      "Ġbalance": 4014,
      "ĠInternet": 4015,
      "Ġtruth": 4016,
      "ĠUN": 4017,
      "Ġresistance": 4018,
      "Ġseparate": 4019,
      "ĠJapanese": 4020,
      "cont": 4021,
      "era": 4022,
      "ĠRetrieved": 4023,
      "igen": 4024,
      "Ġvision": 4025,
      "Ġsac": 4026,
      "Ġfamous": 4027,
      "Ġeventually": 4028,
      "HE": 4029,
      "hors": 4030,
      "Ġbank": 4031,
      "RE": 4032,
      "Ġabsor": 4033,
      "ĠSocial": 4034,
      "Ġtechnologies": 4035,
      "orage": 4036,
      "Ġ2015": 4037,
      "pped": 4038,
      "Ġconsumption": 4039,
      "ĠUK": 4040,
      "isation": 4041,
      "ĠThus": 4042,
      "Ġseven": 4043,
      "Ġphen": 4044,
      "ĠPublic": 4045,
      "uild": 4046,
      "ĠEach": 4047,
      "Ġpassed": 4048,
      "Ġdivid": 4049,
      "Ġorganizations": 4050,
      "lege": 4051,
      "Ġexperim": 4052,
      "Ġeffic": 4053,
      "Ġaim": 4054,
      "Ġbra": 4055,
      "ĠNA": 4056,
      "After": 4057,
      "ĠWestern": 4058,
      "Ġapply": 4059,
      "Ġoptions": 4060,
      "Ġmap": 4061,
      "ygen": 4062,
      "Ar": 4063,
      "Ġstrategies": 4064,
      "Ġcarried": 4065,
      "Ġcand": 4066,
      "Ġguide": 4067,
      "urance": 4068,
      "Is": 4069,
      "Ġdestroy": 4070,
      "Ġdistribution": 4071,
      "Ġplanning": 4072,
      "uit": 4073,
      "Ġnuclear": 4074,
      "eding": 4075,
      "Ġstyle": 4076,
      "Ġ22": 4077,
      "Ġimmediately": 4078,
      "Ġcontract": 4079,
      "Ġclassroom": 4080,
      "Ġurban": 4081,
      "wards": 4082,
      "antic": 4083,
      "Ġ27": 4084,
      "Ġdecades": 4085,
      "Ġchallenge": 4086,
      "ken": 4087,
      "Ġgrass": 4088,
      "ĠPal": 4089,
      "Ġmal": 4090,
      "nes": 4091,
      "ube": 4092,
      "DA": 4093,
      "Ġcollabor": 4094,
      "ris": 4095,
      "Ġgoals": 4096,
      "ĠCur": 4097,
      "lim": 4098,
      "ĠChe": 4099,
      "Ġexhib": 4100,
      "change": 4101,
      "Ġblue": 4102,
      "Ġexcess": 4103,
      "oma": 4104,
      "Ġhighest": 4105,
      "Be": 4106,
      "Ġ+": 4107,
      "iant": 4108,
      "eces": 4109,
      "Ġgain": 4110,
      "tee": 4111,
      "Ġobserved": 4112,
      "bed": 4113,
      "Ġ2005": 4114,
      "Ġfaith": 4115,
      "Ġvitamin": 4116,
      "Ġplans": 4117,
      "Ġspring": 4118,
      "Ġkid": 4119,
      "Ġstructures": 4120,
      "ĠMich": 4121,
      "iance": 4122,
      "Ġexperiences": 4123,
      "Ġhappen": 4124,
      "They": 4125,
      "Ġemphas": 4126,
      "Ġutil": 4127,
      "Ġcelebr": 4128,
      "Ġcommercial": 4129,
      "ĠDon": 4130,
      "Ġhair": 4131,
      "Ġiron": 4132,
      "Ġinstruct": 4133,
      "Ġreference": 4134,
      "Ġextremely": 4135,
      "Ġfavor": 4136,
      "Ġapproximately": 4137,
      "ĠGreen": 4138,
      "ĠVol": 4139,
      "zz": 4140,
      "Ġboard": 4141,
      "Ġmoved": 4142,
      "90": 4143,
      "Ġplastic": 4144,
      "Ġactual": 4145,
      "Ġpick": 4146,
      "Ġtreated": 4147,
      "Ġnutrition": 4148,
      "ĠLord": 4149,
      "ĠInter": 4150,
      "Ġpresident": 4151,
      "Ġdecisions": 4152,
      "ogle": 4153,
      "ĠDavid": 4154,
      "Ġexplore": 4155,
      "iding": 4156,
      "35": 4157,
      "Ġpopulations": 4158,
      "Ġcontrast": 4159,
      "aus": 4160,
      "Ġbodies": 4161,
      "Ġdyn": 4162,
      "Ġheavy": 4163,
      "Ġlegis": 4164,
      "ologist": 4165,
      "care": 4166,
      "Ġslight": 4167,
      "Ġsexual": 4168,
      "ĠMat": 4169,
      "Ġmilk": 4170,
      "Ġiniti": 4171,
      "Ġhousehold": 4172,
      "Ġfeature": 4173,
      "Ġmale": 4174,
      "Ġbecoming": 4175,
      "Ġreality": 4176,
      "Ġtopic": 4177,
      "Ġmo": 4178,
      "Ġdisorders": 4179,
      "Ġparty": 4180,
      "Ġclinical": 4181,
      "bal": 4182,
      "Ġbone": 4183,
      "Ġtrust": 4184,
      "Ġitems": 4185,
      "Ġopin": 4186,
      "Ġliqu": 4187,
      "Ġsignificantly": 4188,
      "Ġmedicine": 4189,
      "Ġestimated": 4190,
      "Ġgene": 4191,
      "enth": 4192,
      "Ġgeneration": 4193,
      "Ġmer": 4194,
      "ares": 4195,
      "Ġhom": 4196,
      "Ġign": 4197,
      "Ġalternative": 4198,
      "Ġaspects": 4199,
      "Ġindustrial": 4200,
      "Ġconnected": 4201,
      "Ġfilm": 4202,
      "ĠAut": 4203,
      "Ġsave": 4204,
      "Ġglass": 4205,
      "Ġdepression": 4206,
      "rest": 4207,
      "Ġresource": 4208,
      "Ġletter": 4209,
      "Ġtransl": 4210,
      "Ġclearly": 4211,
      "char": 4212,
      "Ġpresented": 4213,
      "Ph": 4214,
      "rome": 4215,
      "ĠDevelopment": 4216,
      "ald": 4217,
      "cast": 4218,
      "Ġdiscussion": 4219,
      "ĠMor": 4220,
      "key": 4221,
      "Ġrot": 4222,
      "Ġdesp": 4223,
      "Ġbed": 4224,
      "order": 4225,
      "Ġconducted": 4226,
      "Ġmag": 4227,
      "Ġvary": 4228,
      "ĠRepublic": 4229,
      "unction": 4230,
      "Ġâ": 4231,
      "Ġintroduced": 4232,
      "Ġstream": 4233,
      "Ġspect": 4234,
      "ĠMary": 4235,
      "Ġ2016": 4236,
      "ophy": 4237,
      "Ġfig": 4238,
      "ĠJames": 4239,
      "Ġeasier": 4240,
      "Ġoperations": 4241,
      "ognitive": 4242,
      "ulum": 4243,
      "ĠPlan": 4244,
      "Ġmetal": 4245,
      "Ġhomes": 4246,
      "Ġserve": 4247,
      "eared": 4248,
      "Ġnotes": 4249,
      "ET": 4250,
      "ulf": 4251,
      "ĠWeb": 4252,
      "plications": 4253,
      "asks": 4254,
      "Ġsetting": 4255,
      "Ġnovel": 4256,
      "met": 4257,
      "ĠSpanish": 4258,
      "ĠHuman": 4259,
      "Ġrequirements": 4260,
      "otes": 4261,
      "Ġpartners": 4262,
      "clus": 4263,
      "Ġfrequently": 4264,
      "tered": 4265,
      "porary": 4266,
      "ĠDec": 4267,
      "Ġves": 4268,
      "ĠNet": 4269,
      "Ġparticipants": 4270,
      "ĠBra": 4271,
      "Ġintellig": 4272,
      "Ġnumerous": 4273,
      "Ġstore": 4274,
      "ĠFound": 4275,
      "Ġgames": 4276,
      "ĠRel": 4277,
      "elines": 4278,
      "Ġstarting": 4279,
      "ST": 4280,
      "Ġorganic": 4281,
      "ager": 4282,
      "Ġfreedom": 4283,
      "Ġsand": 4284,
      "Ġfields": 4285,
      "ously": 4286,
      "Ġrecords": 4287,
      "ĠSpec": 4288,
      "ped": 4289,
      "Ġindependent": 4290,
      "ĠFood": 4291,
      "ida": 4292,
      "Ġcompl": 4293,
      "Ġwidely": 4294,
      "Ġcycle": 4295,
      "ructure": 4296,
      "Ġthr": 4297,
      "Ġbuildings": 4298,
      "mark": 4299,
      "Ġdoub": 4300,
      "ĠBudd": 4301,
      "Ġcombination": 4302,
      "Ġrelease": 4303,
      "Ġelectricity": 4304,
      "Ġesc": 4305,
      "Ġocean": 4306,
      "ĠCollege": 4307,
      "erate": 4308,
      "Ġreleased": 4309,
      "apers": 4310,
      "roup": 4311,
      "Ġremove": 4312,
      "Ġviolence": 4313,
      "ĠAv": 4314,
      "Ġnoted": 4315,
      "ĠOver": 4316,
      "Ġturned": 4317,
      "Ġanyone": 4318,
      "ĠChildren": 4319,
      "Ġlived": 4320,
      "ĠGreek": 4321,
      "olved": 4322,
      "Ġpolicies": 4323,
      "Ġkilled": 4324,
      "Ġexpression": 4325,
      "raw": 4326,
      "ĠLet": 4327,
      "edic": 4328,
      "ĠGovernment": 4329,
      "erved": 4330,
      "ĠDes": 4331,
      "Ġrisks": 4332,
      "Ġoutput": 4333,
      "Ġlayer": 4334,
      "Ġcausing": 4335,
      "ĠMuseum": 4336,
      "Ġload": 4337,
      "Ġgod": 4338,
      "Ġ2014": 4339,
      "Ġbattle": 4340,
      "Ġtim": 4341,
      "Ġexperiment": 4342,
      "Ġ190": 4343,
      "Ġagg": 4344,
      "ault": 4345,
      "works": 4346,
      "hetic": 4347,
      "Ġcampaign": 4348,
      "Ġgraph": 4349,
      "ĠRev": 4350,
      "oting": 4351,
      "amental": 4352,
      "ologists": 4353,
      "Ġ80": 4354,
      "erences": 4355,
      "Ġcreation": 4356,
      "Ġassessment": 4357,
      "Ġwin": 4358,
      "Ġgets": 4359,
      "Ġhear": 4360,
      "ĠOb": 4361,
      "Ġtour": 4362,
      "ilit": 4363,
      "stitution": 4364,
      "imens": 4365,
      "icial": 4366,
      "Ġsample": 4367,
      "Ġprefer": 4368,
      "Ġchanging": 4369,
      "Ġbottom": 4370,
      "45": 4371,
      "Ġliterature": 4372,
      "Ġminor": 4373,
      "Ġcovered": 4374,
      "Ġconv": 4375,
      "ii": 4376,
      "Ġisland": 4377,
      "Ġtrig": 4378,
      "ias": 4379,
      "Ġinterpret": 4380,
      "Ġresulting": 4381,
      "Ġchronic": 4382,
      "ios": 4383,
      "EM": 4384,
      "Ġperformed": 4385,
      "Ġunivers": 4386,
      "Ġoxygen": 4387,
      "ressive": 4388,
      "Ġconnection": 4389,
      "anging": 4390,
      "Ġdrive": 4391,
      "Ġ29": 4392,
      "Ġcircum": 4393,
      "Ġmessage": 4394,
      "rant": 4395,
      "Ġwhom": 4396,
      "Ġphysic": 4397,
      "Ġtemperatures": 4398,
      "Ġisol": 4399,
      "Ġshap": 4400,
      "Ġwanted": 4401,
      "raction": 4402,
      "Sh": 4403,
      "Ġrecommended": 4404,
      "Ġrul": 4405,
      "Ġtechnique": 4406,
      "ĠCath": 4407,
      "Ġsem": 4408,
      "ĠGeorge": 4409,
      "tical": 4410,
      "osystem": 4411,
      "Ġspeech": 4412,
      "Ġdangerous": 4413,
      "Ġfinding": 4414,
      "atically": 4415,
      "ĠUnder": 4416,
      "Ġship": 4417,
      "ria": 4418,
      "Ġannual": 4419,
      "Ġready": 4420,
      "Ġprinciples": 4421,
      "Ġreferred": 4422,
      "AM": 4423,
      "Ġupper": 4424,
      "Ġfeeling": 4425,
      "othes": 4426,
      "ĠAir": 4427,
      "Ġgender": 4428,
      "Ġrelationships": 4429,
      "ieces": 4430,
      "ĠOff": 4431,
      "essor": 4432,
      "Ġterrit": 4433,
      "Ġbuy": 4434,
      "Ġcore": 4435,
      "Ġcollege": 4436,
      "PS": 4437,
      "Ġauthors": 4438,
      "Ġencourage": 4439,
      "ij": 4440,
      "Ġconfirm": 4441,
      "lick": 4442,
      "Ġdegrees": 4443,
      "Ġstorage": 4444,
      "Ġvul": 4445,
      "Ġinternal": 4446,
      "78": 4447,
      "iveness": 4448,
      "Ġbeautiful": 4449,
      "Ġcharacteristics": 4450,
      "respond": 4451,
      "roph": 4452,
      "Ġdrop": 4453,
      "onic": 4454,
      "Ġgrant": 4455,
      "Ġdistinct": 4456,
      "olid": 4457,
      "Ġmeeting": 4458,
      "Ġ#": 4459,
      "Ġroot": 4460,
      "ta": 4461,
      "ishing": 4462,
      "Ġhappens": 4463,
      "Ġreprodu": 4464,
      "Ġhelped": 4465,
      "ĠOrgan": 4466,
      "Ġcast": 4467,
      "ĠPaul": 4468,
      "Ġtrou": 4469,
      "Ġalg": 4470,
      "Ġmeat": 4471,
      "Ġregarding": 4472,
      "Ġdetermined": 4473,
      "Ġprepar": 4474,
      "Ġnor": 4475,
      "ocal": 4476,
      "However": 4477,
      "Ġupd": 4478,
      "Ġreducing": 4479,
      "Ġtooth": 4480,
      "Ġfine": 4481,
      "Ġexactly": 4482,
      "cers": 4483,
      "atform": 4484,
      "Ġvessel": 4485,
      "Ġburn": 4486,
      "Ġunf": 4487,
      "Ġsolutions": 4488,
      "Ġexcell": 4489,
      "Ġbelong": 4490,
      "Ġflood": 4491,
      "Ġtrib": 4492,
      "ĠIsland": 4493,
      "Ġinjury": 4494,
      "33": 4495,
      "Ġnorthern": 4496,
      "Ġunits": 4497,
      "lease": 4498,
      "Ġsav": 4499,
      "Ġpric": 4500,
      "orial": 4501,
      "Ġradio": 4502,
      "Ġcounter": 4503,
      "Ġreligion": 4504,
      "Ġyouth": 4505,
      "Ġconservation": 4506,
      "Here": 4507,
      "ago": 4508,
      "CC": 4509,
      "ander": 4510,
      "Ġcomprehens": 4511,
      "Ġplease": 4512,
      "with": 4513,
      "ieties": 4514,
      "ressed": 4515,
      "ulating": 4516,
      "Ġreb": 4517,
      "ortunately": 4518,
      "ĠProject": 4519,
      "Con": 4520,
      "Ġoption": 4521,
      "ĠTherefore": 4522,
      "Ġ2017": 4523,
      "vision": 4524,
      "ĠMount": 4525,
      "mal": 4526,
      "Ġmentioned": 4527,
      "Ġdram": 4528,
      "Ġanxiety": 4529,
      "ek": 4530,
      "ĠBel": 4531,
      "Ġradiation": 4532,
      "Ġbackground": 4533,
      "ĠWork": 4534,
      "Ġvolunt": 4535,
      "Ġgenes": 4536,
      "According": 4537,
      "Ġround": 4538,
      "Ġinitial": 4539,
      "och": 4540,
      "Ġmathemat": 4541,
      "ĠDem": 4542,
      "ĠWhy": 4543,
      "ĠSam": 4544,
      "Ġmostly": 4545,
      "Ġpreviously": 4546,
      "ĠOnce": 4547,
      "Ġserved": 4548,
      "Ġremoved": 4549,
      "tes": 4550,
      "uing": 4551,
      "Ġproperly": 4552,
      "Ġsurgery": 4553,
      "Ġstatement": 4554,
      "Ġvolume": 4555,
      "ĠFore": 4556,
      "Ġinvolve": 4557,
      "Ġinvolves": 4558,
      "rog": 4559,
      "Ġinfections": 4560,
      "umn": 4561,
      "riage": 4562,
      "Ġrace": 4563,
      "Ġtrend": 4564,
      "ĠSun": 4565,
      "Ġheard": 4566,
      "Ġinterested": 4567,
      "Ġinput": 4568,
      "Ġelimin": 4569,
      "Ġemail": 4570,
      "Ġ2004": 4571,
      "Ġfailure": 4572,
      "Ġscen": 4573,
      "Ġdescribe": 4574,
      "Ġpromote": 4575,
      "Ġreplace": 4576,
      "leg": 4577,
      "ping": 4578,
      "riculum": 4579,
      "rates": 4580,
      "Ġadvanced": 4581,
      "Ġsolid": 4582,
      "Ġcredit": 4583,
      "ĠMark": 4584,
      "Ġinflamm": 4585,
      "ributed": 4586,
      "ategy": 4587,
      "iverse": 4588,
      "Ġexperienced": 4589,
      "Ġclick": 4590,
      "ĠTest": 4591,
      "Ġinh": 4592,
      "Ġlinked": 4593,
      "Ġwest": 4594,
      "Ġeggs": 4595,
      "ĠHIV": 4596,
      "Ġleads": 4597,
      "rans": 4598,
      "Ġmist": 4599,
      "Ġlic": 4600,
      "Ġ186": 4601,
      "Ġarm": 4602,
      "Ġclasses": 4603,
      "inate": 4604,
      "Ġtum": 4605,
      "ĠTex": 4606,
      "ĠIts": 4607,
      "Ġobvious": 4608,
      "Â°": 4609,
      "Ġpal": 4610,
      "Ġtransform": 4611,
      "ception": 4612,
      "road": 4613,
      "Ġsquare": 4614,
      "Ġthick": 4615,
      "itz": 4616,
      "Ġrelevant": 4617,
      "ĠST": 4618,
      "Ġstrategy": 4619,
      "Ġmeant": 4620,
      "rum": 4621,
      "Ġmanufacture": 4622,
      "Ġarticles": 4623,
      "Ġadvantage": 4624,
      "Ġlandsc": 4625,
      "Ġreaction": 4626,
      "Ġcharge": 4627,
      "Ġeffectively": 4628,
      "Äģ": 4629,
      "Ġexposed": 4630,
      "arrow": 4631,
      "Ġsouthern": 4632,
      "Ġkept": 4633,
      "Ġdepending": 4634,
      "Ġ70": 4635,
      "ĠAsia": 4636,
      "isher": 4637,
      "Ġdri": 4638,
      "kin": 4639,
      "Ġfol": 4640,
      "Ġlib": 4641,
      "ĠHen": 4642,
      "Ġsaying": 4643,
      "uted": 4644,
      "oyal": 4645,
      "Ġdecided": 4646,
      "ags": 4647,
      "ĠâĢ¦": 4648,
      "ĠSen": 4649,
      "Ġexperts": 4650,
      "75": 4651,
      "Many": 4652,
      "Ġpollution": 4653,
      "rete": 4654,
      "Ġdogs": 4655,
      "Why": 4656,
      "Ġdie": 4657,
      "Ġexpert": 4658,
      "Ġprepared": 4659,
      "Ġconflict": 4660,
      "za": 4661,
      "berg": 4662,
      "Ġspent": 4663,
      "Ġ90": 4664,
      "ĠEv": 4665,
      "Ġclos": 4666,
      "Ġfarmers": 4667,
      "ĠRober": 4668,
      "ĠPhys": 4669,
      "New": 4670,
      "bi": 4671,
      "Ġinstitutions": 4672,
      "ĠMal": 4673,
      "Ġhelping": 4674,
      "wood": 4675,
      "Ġpresc": 4676,
      "36": 4677,
      "rep": 4678,
      "Ġimpl": 4679,
      "Ġmotion": 4680,
      "urt": 4681,
      "Ġadjust": 4682,
      "Ġincorpor": 4683,
      "ĠGra": 4684,
      "ĠMars": 4685,
      "Ġofficial": 4686,
      "Ġspot": 4687,
      "Ġlung": 4688,
      "Ġproposed": 4689,
      "Ġinstall": 4690,
      "Res": 4691,
      "ĠPort": 4692,
      "Ġpages": 4693,
      "ams": 4694,
      "Ġeast": 4695,
      "Ġmanage": 4696,
      "Ġprocessing": 4697,
      "Ġvegetables": 4698,
      "board": 4699,
      "Ġconcern": 4700,
      "Although": 4701,
      "Ġinvent": 4702,
      "Sp": 4703,
      "That": 4704,
      "iling": 4705,
      "uration": 4706,
      "Ġcontinues": 4707,
      "Ġkill": 4708,
      "ĠService": 4709,
      "Ġpret": 4710,
      "ato": 4711,
      "ifying": 4712,
      "well": 4713,
      "aughter": 4714,
      "Ġsort": 4715,
      "Ġconcerns": 4716,
      "ĠMexico": 4717,
      "Ġseeds": 4718,
      "Ġamounts": 4719,
      "Ġhour": 4720,
      "Ġ2003": 4721,
      "Ġprofession": 4722,
      "Ġjour": 4723,
      "Ġdiscover": 4724,
      "ĠJews": 4725,
      "Ġsynt": 4726,
      "Ġseed": 4727,
      "Ġsignal": 4728,
      "Ġmel": 4729,
      "Ġaid": 4730,
      "Ġseek": 4731,
      "Ġsong": 4732,
      "place": 4733,
      "Ġacademic": 4734,
      "ĠIr": 4735,
      "Ġoperation": 4736,
      "Ġphase": 4737,
      "Ġcomfort": 4738,
      "Ġconclud": 4739,
      "Ġessay": 4740,
      "Ġcere": 4741,
      "Ġemotional": 4742,
      "Ġwaters": 4743,
      "ĠStudents": 4744,
      "rian": 4745,
      "Ġphenomen": 4746,
      "Ġcoal": 4747,
      "ĠSub": 4748,
      "ĠAcad": 4749,
      "Ġowners": 4750,
      "ded": 4751,
      "Ġdiss": 4752,
      "Ġatmosphere": 4753,
      "Ġcorrespond": 4754,
      "Ġ...": 4755,
      "Ġsupported": 4756,
      "Ġwealth": 4757,
      "acing": 4758,
      "ĠCivil": 4759,
      "ĠJe": 4760,
      "alle": 4761,
      "Ġchemicals": 4762,
      "Ġreached": 4763,
      "Ġbrother": 4764,
      "Ġvulner": 4765,
      "nic": 4766,
      "Ġmainly": 4767,
      "Ġpieces": 4768,
      "ĠInf": 4769,
      "standing": 4770,
      "Ġfinally": 4771,
      "Ġidentity": 4772,
      "ĠMart": 4773,
      "Ġlooks": 4774,
      "US": 4775,
      "eline": 4776,
      "Ġmanner": 4777,
      "onomic": 4778,
      "Ġforced": 4779,
      "mp": 4780,
      "Ġpip": 4781,
      "ĠBas": 4782,
      "Ġsecret": 4783,
      "Ġconcepts": 4784,
      "Our": 4785,
      "akers": 4786,
      "vis": 4787,
      "Ġremained": 4788,
      "AD": 4789,
      "Ġdefinition": 4790,
      "ya": 4791,
      "ĠMet": 4792,
      "ĠOld": 4793,
      "ĠThomas": 4794,
      "Ġcompleted": 4795,
      "ĠLa": 4796,
      "Ġsustainable": 4797,
      "Ġhop": 4798,
      "ĠCourt": 4799,
      "Now": 4800,
      "acific": 4801,
      "ework": 4802,
      "Ġconsult": 4803,
      "ears": 4804,
      "Ġdoll": 4805,
      "Ġnotice": 4806,
      "ĠRich": 4807,
      "rence": 4808,
      "comes": 4809,
      "which": 4810,
      "Ġintended": 4811,
      "Ġbegins": 4812,
      "Ġtaught": 4813,
      "Ġfluid": 4814,
      "ĠLife": 4815,
      "Ġnit": 4816,
      "ormal": 4817,
      "Ġdiagnosis": 4818,
      "38": 4819,
      "Ġengineering": 4820,
      "Ġhorm": 4821,
      "Ġformation": 4822,
      "ĠWhite": 4823,
      "Cl": 4824,
      "ĠBritain": 4825,
      "Ġfoss": 4826,
      "Ġdatab": 4827,
      "Ġsusp": 4828,
      "ndrome": 4829,
      "Ġsettle": 4830,
      "Ġwonder": 4831,
      "roke": 4832,
      "ĠWell": 4833,
      "rows": 4834,
      "oper": 4835,
      "Ġpun": 4836,
      "astern": 4837,
      "AP": 4838,
      "ĠRem": 4839,
      "ux": 4840,
      "Ġlov": 4841,
      "ĠIsl": 4842,
      "Ġcenturies": 4843,
      "Ġyellow": 4844,
      "Ġlanguages": 4845,
      "Ġprocedure": 4846,
      "Ġallowing": 4847,
      "Ġprofessor": 4848,
      "Ġelectrical": 4849,
      "ĠDi": 4850,
      "ĠDirect": 4851,
      "Ġplatform": 4852,
      "Ġimproved": 4853,
      "Ġauthority": 4854,
      "Ġrecorded": 4855,
      "Ġdro": 4856,
      "RO": 4857,
      "CO": 4858,
      "Ġfort": 4859,
      "Ġmath": 4860,
      "ĠMedicine": 4861,
      "Ġstation": 4862,
      "rier": 4863,
      "ĠVirgin": 4864,
      "yright": 4865,
      "Ġmorning": 4866,
      "Ġtechnical": 4867,
      "Ġawareness": 4868,
      "Ġdefic": 4869,
      "Ġwet": 4870,
      "Ġcomment": 4871,
      "Ġcombined": 4872,
      "Ġhospital": 4873,
      "Ġcoord": 4874,
      "aturally": 4875,
      "ishes": 4876,
      "Ġkinds": 4877,
      "Ġmaster": 4878,
      "Ġsufficient": 4879,
      "Ġ35": 4880,
      "ĠSer": 4881,
      "Ġindicate": 4882,
      "Ġcollected": 4883,
      "ĠKore": 4884,
      "Ġcris": 4885,
      "ĠCentral": 4886,
      "'ll": 4887,
      "ossible": 4888,
      "Ġshared": 4889,
      "Ġhit": 4890,
      "Ġban": 4891,
      "Ġoffered": 4892,
      "ĠBer": 4893,
      "Ġpurposes": 4894,
      "Ġtoxic": 4895,
      "Ġreduction": 4896,
      "Ġstorm": 4897,
      "ht": 4898,
      "Ġmotor": 4899,
      "Ġfrequency": 4900,
      "enced": 4901,
      "ĠArab": 4902,
      "atric": 4903,
      "aker": 4904,
      "Ġmotiv": 4905,
      "zing": 4906,
      "Ġtrial": 4907,
      "Ġfacts": 4908,
      "oking": 4909,
      "Ġgirls": 4910,
      "uable": 4911,
      "Ġoccurred": 4912,
      "Ġhearing": 4913,
      "rations": 4914,
      "Ġrenew": 4915,
      "ĠNASA": 4916,
      "ounced": 4917,
      "Ġnav": 4918,
      "Ġraised": 4919,
      "Ġpractical": 4920,
      "Ġ2001": 4921,
      "ball": 4922,
      "ĠAtl": 4923,
      "ĠCam": 4924,
      "ĠEvery": 4925,
      "Ġecosystem": 4926,
      "Ġleader": 4927,
      "Ġlesson": 4928,
      "Ġfib": 4929,
      "Ġther": 4930,
      "clusion": 4931,
      "ĠHel": 4932,
      "Ġparticles": 4933,
      "Ġflex": 4934,
      "espite": 4935,
      "west": 4936,
      "Ġarmy": 4937,
      "Ġgrade": 4938,
      "osite": 4939,
      "Ġlinks": 4940,
      "Ġvoice": 4941,
      "ĠMiss": 4942,
      "Ġfocused": 4943,
      "ĠTexas": 4944,
      "ĠMac": 4945,
      "Ġappoint": 4946,
      "osen": 4947,
      "Ġprimarily": 4948,
      "Ġconver": 4949,
      "Ġbond": 4950,
      "Ġexistence": 4951,
      "going": 4952,
      "From": 4953,
      "Ġlargely": 4954,
      "ĠSal": 4955,
      "48": 4956,
      "Ġbrief": 4957,
      "ĠFre": 4958,
      "Ġresist": 4959,
      "Ġdrinking": 4960,
      "Ġextent": 4961,
      "ĠMedical": 4962,
      "ĠFranc": 4963,
      "oviet": 4964,
      "itors": 4965,
      "anch": 4966,
      "verty": 4967,
      "ĠBible": 4968,
      "Ġsamples": 4969,
      "ĠSpace": 4970,
      "Americ": 4971,
      "Ġsituations": 4972,
      "olars": 4973,
      "ĠJer": 4974,
      "ĠCommission": 4975,
      "ensus": 4976,
      "Ġthoughts": 4977,
      "Ġhttps": 4978,
      "ĠBay": 4979,
      "Ġmuscles": 4980,
      "Ġpoverty": 4981,
      "iated": 4982,
      "Ġcontribute": 4983,
      "Ġcertainly": 4984,
      "Ġliquid": 4985,
      "ael": 4986,
      "Ġpersons": 4987,
      "Ġdespite": 4988,
      "Ġideal": 4989,
      "Ġbill": 4990,
      "Ġsnow": 4991,
      "ĠNews": 4992,
      "Ġresponsibility": 4993,
      "Most": 4994,
      "Ġtro": 4995,
      "gl": 4996,
      "ĠArmy": 4997,
      "Ġtreatments": 4998,
      "Ġconsequences": 4999,
      "rapy": 5000,
      "ado": 5001,
      "Ġblog": 5002,
      "otic": 5003,
      "Ġefficiency": 5004,
      "tion": 5005,
      "gra": 5006,
      "omin": 5007,
      "Ġrural": 5008,
      "Ġagricultural": 5009,
      "des": 5010,
      "Ġgrand": 5011,
      "Ġflowers": 5012,
      "ĠRussian": 5013,
      "Ġstraight": 5014,
      "'ve": 5015,
      "Ġperman": 5016,
      "Ġspecifically": 5017,
      "Ġexplan": 5018,
      "ache": 5019,
      "Ġexplains": 5020,
      "ĠAD": 5021,
      "100": 5022,
      "Ġcert": 5023,
      "Ġcognitive": 5024,
      "hips": 5025,
      "Ġjobs": 5026,
      "Ġmix": 5027,
      "Ġfelt": 5028,
      "Ġpark": 5029,
      "Ġ1990": 5030,
      "ĠLou": 5031,
      "Ġbright": 5032,
      "ample": 5033,
      "ĠBC": 5034,
      "Ġshar": 5035,
      "Ġpolice": 5036,
      "olute": 5037,
      "ague": 5038,
      "Ġsector": 5039,
      "EL": 5040,
      "ĠMr": 5041,
      "rich": 5042,
      "Ġwife": 5043,
      "Ġrevolution": 5044,
      "Ab": 5045,
      "inf": 5046,
      "lig": 5047,
      "Ġbud": 5048,
      "Ġexcellent": 5049,
      "Ġshowing": 5050,
      "Ġ2002": 5051,
      "ixt": 5052,
      "ses": 5053,
      "ĠQue": 5054,
      "anges": 5055,
      "acters": 5056,
      "Ġheight": 5057,
      "Ġimpacts": 5058,
      "ras": 5059,
      "Ġnations": 5060,
      "Ġadvice": 5061,
      "ĠLatin": 5062,
      "Ġadvance": 5063,
      "ĠBen": 5064,
      "Ġemergency": 5065,
      "Ġkn": 5066,
      "utive": 5067,
      "igenous": 5068,
      "Ġsubjects": 5069,
      "39": 5070,
      "Ġcareer": 5071,
      "ĠEnergy": 5072,
      "Ġvaccine": 5073,
      "othing": 5074,
      "col": 5075,
      "Ġsalt": 5076,
      "cript": 5077,
      "Ġbird": 5078,
      "ĠDist": 5079,
      "Ġplaying": 5080,
      "ĠSecond": 5081,
      "Ġfaster": 5082,
      "Ġotherwise": 5083,
      "Ġlooked": 5084,
      "Ġquar": 5085,
      "Ġ2018": 5086,
      "Ġsin": 5087,
      "Ġrefers": 5088,
      "Ġbiological": 5089,
      "eters": 5090,
      "ested": 5091,
      "oughly": 5092,
      "Ġtrain": 5093,
      "Ġsuggested": 5094,
      "Ġneighbor": 5095,
      "Ã¡": 5096,
      "Ġmere": 5097,
      "rolog": 5098,
      "ĠTechnology": 5099,
      "right": 5100,
      "what": 5101,
      "Ġgovernments": 5102,
      "Ġsend": 5103,
      "ĠHol": 5104,
      "Ġreturned": 5105,
      "Ġfundamental": 5106,
      "Ġdetailed": 5107,
      "Ġletters": 5108,
      "inent": 5109,
      "Ġhabitat": 5110,
      "Ġvital": 5111,
      "Ġabuse": 5112,
      "Ġclaims": 5113,
      "oo": 5114,
      "Ġstars": 5115,
      "band": 5116,
      "ĠFurther": 5117,
      "Ġgreatest": 5118,
      "Ġvast": 5119,
      "nam": 5120,
      "Ġprotected": 5121,
      "Ġ189": 5122,
      "Ġflat": 5123,
      "Ġsounds": 5124,
      "Ġincreasingly": 5125,
      "field": 5126,
      "Ġstone": 5127,
      "No": 5128,
      "Ġnutrients": 5129,
      "asure": 5130,
      "Ġstem": 5131,
      "ÃŃ": 5132,
      "Ġliver": 5133,
      "Ġdomestic": 5134,
      "win": 5135,
      "Ġsurrounding": 5136,
      "ĠClass": 5137,
      "Ġtasks": 5138,
      "onomy": 5139,
      "RI": 5140,
      "Ġsche": 5141,
      "lar": 5142,
      "Ġroll": 5143,
      "Ġimmig": 5144,
      "Ġmort": 5145,
      "Ġkm": 5146,
      "Ġnerv": 5147,
      "Ġoperating": 5148,
      "Ġonto": 5149,
      "Ġkeeping": 5150,
      "Ġspend": 5151,
      "Ġmaximum": 5152,
      "OT": 5153,
      "Ġpros": 5154,
      "stood": 5155,
      "Ġhappened": 5156,
      "oral": 5157,
      "that": 5158,
      "zy": 5159,
      "Ġrand": 5160,
      "ĠCle": 5161,
      "Ġtypical": 5162,
      "ĠMass": 5163,
      "Ġperspective": 5164,
      "Ġdivided": 5165,
      "Ġwel": 5166,
      "iced": 5167,
      "enses": 5168,
      "ĠDise": 5169,
      "Ġplayed": 5170,
      "Ġproport": 5171,
      "Ġfamiliar": 5172,
      "ĠSou": 5173,
      "Ġhundreds": 5174,
      "resents": 5175,
      "van": 5176,
      "Pl": 5177,
      "Ġfirm": 5178,
      "Ġmonitoring": 5179,
      "Ġapparent": 5180,
      "Ġpotentially": 5181,
      "Ġmeasured": 5182,
      "ĠÃ": 5183,
      "Ġrecognized": 5184,
      "Ġinterests": 5185,
      "Ġaffects": 5186,
      "Ġslightly": 5187,
      "34": 5188,
      "Ġthin": 5189,
      "point": 5190,
      "Ġapproaches": 5191,
      "unk": 5192,
      "Ġsyn": 5193,
      "Ġlik": 5194,
      "Ġmetab": 5195,
      "Ġpul": 5196,
      "Ġcontrolled": 5197,
      "ometimes": 5198,
      "Ġminimum": 5199,
      "Ġinstrument": 5200,
      "ails": 5201,
      "ĠInformation": 5202,
      "ĠCatholic": 5203,
      "Ġrandom": 5204,
      "Ġfif": 5205,
      "ey": 5206,
      "Ġsen": 5207,
      "Ġaren": 5208,
      "ĠTwo": 5209,
      "ĠSoviet": 5210,
      "ulin": 5211,
      "Ġspl": 5212,
      "ville": 5213,
      "ingly": 5214,
      "BC": 5215,
      "Ġfollows": 5216,
      "Ġhyper": 5217,
      "rastructure": 5218,
      "Ġvent": 5219,
      "ĠFoundation": 5220,
      "Ġvalid": 5221,
      "Ġdepth": 5222,
      "ipped": 5223,
      "Ġofficials": 5224,
      "Ġsatis": 5225,
      "ĠWind": 5226,
      "Ġprison": 5227,
      "Ġcomponent": 5228,
      "Ġconsists": 5229,
      "Ġmoist": 5230,
      "Ġexplained": 5231,
      "ĠBook": 5232,
      "Ġneut": 5233,
      "Ġhelpful": 5234,
      "ĠToday": 5235,
      "ĠMil": 5236,
      "ancing": 5237,
      "active": 5238,
      "Ġappeared": 5239,
      "osa": 5240,
      "Ġcrops": 5241,
      "Ġdisapp": 5242,
      "Ġcrisis": 5243,
      "ĠPacific": 5244,
      "Ġcharacters": 5245,
      "Ġreform": 5246,
      "Ġknew": 5247,
      "Ġstudied": 5248,
      "cest": 5249,
      "Ġdouble": 5250,
      "Ġattacks": 5251,
      "Ġspiritual": 5252,
      "Ġlose": 5253,
      "Ġpray": 5254,
      "Ġvehicle": 5255,
      "iled": 5256,
      "Ġages": 5257,
      "ĠMont": 5258,
      "name": 5259,
      "Ġexternal": 5260,
      "ĠTreat": 5261,
      "ĠCD": 5262,
      "Ġbow": 5263,
      "ĠBoth": 5264,
      "eria": 5265,
      "Ġchann": 5266,
      "itage": 5267,
      "li": 5268,
      "Ġdirector": 5269,
      "ĠRussia": 5270,
      "nel": 5271,
      "atever": 5272,
      "ĠElect": 5273,
      "ĠRights": 5274,
      "ĠDef": 5275,
      "ĠOp": 5276,
      "Ġsubstant": 5277,
      "Ġkil": 5278,
      "Ġgoods": 5279,
      "Ġtopics": 5280,
      "Ġportion": 5281,
      "Ġfacilities": 5282,
      "ĠFlor": 5283,
      "Ġinstruction": 5284,
      "ĠStand": 5285,
      "?âĢĿ": 5286,
      "Ġsed": 5287,
      "Ġprices": 5288,
      "Ġoral": 5289,
      "Ġtitle": 5290,
      "ĠJose": 5291,
      "ING": 5292,
      "Ġfle": 5293,
      "Ġaccurate": 5294,
      "Im": 5295,
      "Ġcontinuous": 5296,
      "Ġfiles": 5297,
      "Ġclim": 5298,
      "ĠAN": 5299,
      "ellect": 5300,
      "Ġchief": 5301,
      "ĠLake": 5302,
      "Ġdepends": 5303,
      "iest": 5304,
      "Ġwestern": 5305,
      "itness": 5306,
      "Ġconvent": 5307,
      "Ġinvestment": 5308,
      "Ġsubstance": 5309,
      "Ġrepresents": 5310,
      "Ġcouple": 5311,
      "Ġcontaining": 5312,
      "Ġrapidly": 5313,
      "ĠMiddle": 5314,
      "Ġpaint": 5315,
      "Ġperiods": 5316,
      "Ġallerg": 5317,
      "ĠLearning": 5318,
      "inger": 5319,
      "More": 5320,
      "Ġrecy": 5321,
      "uke": 5322,
      "Ġclosely": 5323,
      "Ġimmun": 5324,
      "ĠÎ": 5325,
      "Ġtried": 5326,
      "ompl": 5327,
      "Ġhaz": 5328,
      "Ġwalls": 5329,
      "isp": 5330,
      "Ġstated": 5331,
      "ĠDel": 5332,
      "Ġtested": 5333,
      "Ġvisible": 5334,
      "Ġcrucial": 5335,
      "Ġconcerned": 5336,
      "Ġnaturally": 5337,
      "ificial": 5338,
      "ĠRef": 5339,
      "alse": 5340,
      "Ġsuffering": 5341,
      "Ġdiscovery": 5342,
      "ĠNor": 5343,
      "Ġcircumst": 5344,
      "ION": 5345,
      "ĠFederal": 5346,
      "Ġgar": 5347,
      "chers": 5348,
      "Ġfeelings": 5349,
      "Ġemployees": 5350,
      "pat": 5351,
      "Ġcontem": 5352,
      "Ġconcentration": 5353,
      "down": 5354,
      "yro": 5355,
      "ĠWomen": 5356,
      "racy": 5357,
      "ĠSte": 5358,
      "Ġelev": 5359,
      "37": 5360,
      "Ġ2020": 5361,
      "Ġselected": 5362,
      "ĠCarol": 5363,
      "Ġnarrow": 5364,
      "Ġarms": 5365,
      "aks": 5366,
      "osc": 5367,
      "Ġsubsequ": 5368,
      "Ġmoral": 5369,
      "Ġresidents": 5370,
      "umber": 5371,
      "Ġmedications": 5372,
      "Ġharvest": 5373,
      "ĠCharles": 5374,
      "ĠWild": 5375,
      "ĠSmith": 5376,
      "ĠHistor": 5377,
      "Ġmovements": 5378,
      "Ġdeliver": 5379,
      "Ġalt": 5380,
      "Ġtips": 5381,
      "Ġfloor": 5382,
      "Ġpaid": 5383,
      "Ġcurriculum": 5384,
      "ĠLibrary": 5385,
      "eck": 5386,
      "istan": 5387,
      "Ġgrown": 5388,
      "umin": 5389,
      "alian": 5390,
      "TS": 5391,
      "Ġoutcomes": 5392,
      "Ġdocuments": 5393,
      "ĠConstitution": 5394,
      "HO": 5395,
      "Ġviews": 5396,
      "32": 5397,
      "Ġdiscussed": 5398,
      "anes": 5399,
      "roc": 5400,
      "mat": 5401,
      "Ġleaving": 5402,
      "áĥ": 5403,
      "ĠMicro": 5404,
      "Ġrail": 5405,
      "Ġsmart": 5406,
      "Ġproteins": 5407,
      "celer": 5408,
      "inding": 5409,
      "Ġroots": 5410,
      "Ġdistingu": 5411,
      "44": 5412,
      "ĠPost": 5413,
      "gal": 5414,
      "olf": 5415,
      "ĠLand": 5416,
      "Ġjustice": 5417,
      "Ġfunding": 5418,
      "Another": 5419,
      "Ġrein": 5420,
      "ĠNature": 5421,
      "Ġ45": 5422,
      "state": 5423,
      "ĠSupp": 5424,
      "ĠOut": 5425,
      "65": 5426,
      "ĠJud": 5427,
      "Ġargument": 5428,
      "abil": 5429,
      "198": 5430,
      "gment": 5431,
      "Ġmedium": 5432,
      "Ġcardi": 5433,
      "ĠHenry": 5434,
      "ascular": 5435,
      "Ġsides": 5436,
      "Ġdiscrim": 5437,
      "lers": 5438,
      "ĠRobert": 5439,
      "Ġaccompl": 5440,
      "Ġmarine": 5441,
      "Ġparties": 5442,
      "Ġdiam": 5443,
      "icks": 5444,
      "Ġinterview": 5445,
      "Ġju": 5446,
      "ĠAnother": 5447,
      "ĠUsing": 5448,
      "Ġprocedures": 5449,
      "Ġphone": 5450,
      "MS": 5451,
      "âĢĻ.": 5452,
      "Ġsets": 5453,
      "Dr": 5454,
      "mas": 5455,
      "ĠControl": 5456,
      "ĠFam": 5457,
      "BN": 5458,
      "Ġweap": 5459,
      "Ġadding": 5460,
      "ĠSuch": 5461,
      "Ġobtained": 5462,
      "Ġadvoc": 5463,
      "ĠAp": 5464,
      "ĠPsych": 5465,
      "Ġstret": 5466,
      "ĠGoogle": 5467,
      "Ġdiversity": 5468,
      "la": 5469,
      "Do": 5470,
      "Ġhunt": 5471,
      "ĠData": 5472,
      "Ġfruits": 5473,
      "Ġfertil": 5474,
      "Ġ2019": 5475,
      "Ġlatest": 5476,
      "ĠInstead": 5477,
      "During": 5478,
      "Ġod": 5479,
      "Ġpictures": 5480,
      "ĠUp": 5481,
      "Ġ*": 5482,
      "ĠEnvironmental": 5483,
      "Ġpu": 5484,
      "ĠSea": 5485,
      "ĠDisc": 5486,
      "ĠEmp": 5487,
      "hi": 5488,
      "Ġmillions": 5489,
      ".|": 5490,
      "Gen": 5491,
      "dden": 5492,
      "Ġhorse": 5493,
      "Ġtalking": 5494,
      "Ġvaluable": 5495,
      "Ġconscious": 5496,
      "rid": 5497,
      "ĠWil": 5498,
      "Ġrecovery": 5499,
      "Ġdial": 5500,
      "Ġexpensive": 5501,
      "ĠColumb": 5502,
      "Ġlaun": 5503,
      "Sc": 5504,
      "Ġpil": 5505,
      "Ġ188": 5506,
      "DF": 5507,
      "ĠMake": 5508,
      "Ġinternet": 5509,
      "Ġcolors": 5510,
      "Ġrecognize": 5511,
      "Ġexchange": 5512,
      "ĠMem": 5513,
      "fall": 5514,
      "Ġregularly": 5515,
      "Ġdepos": 5516,
      "uses": 5517,
      "Other": 5518,
      "Ġcapable": 5519,
      "Ġband": 5520,
      "Ġcorpor": 5521,
      "Ġoriginally": 5522,
      "Ġingred": 5523,
      "31": 5524,
      "99": 5525,
      "Ġaccomp": 5526,
      "Ġlessons": 5527,
      "Ġparam": 5528,
      "ĠLike": 5529,
      "Ġagriculture": 5530,
      "Ġprevention": 5531,
      "Ġvillage": 5532,
      "omy": 5533,
      "ocratic": 5534,
      "Ġpig": 5535,
      "osm": 5536,
      "Ġregional": 5537,
      "anguage": 5538,
      "Ġmyth": 5539,
      "Ġdeaths": 5540,
      "Ġimpossible": 5541,
      "hist": 5542,
      "ĠKen": 5543,
      "Ġprecise": 5544,
      ".;": 5545,
      "Ġformal": 5546,
      "ĠNav": 5547,
      "Ġprinciple": 5548,
      "Ġtouch": 5549,
      "Ġleadership": 5550,
      "Ġopinion": 5551,
      "ĠPers": 5552,
      "Ġdu": 5553,
      "Ġchapter": 5554,
      "asive": 5555,
      "ada": 5556,
      "ario": 5557,
      "liam": 5558,
      "Ġintroduction": 5559,
      "Ġdecrease": 5560,
      "Ġbusinesses": 5561,
      "Ġpregnancy": 5562,
      "De": 5563,
      "Ġraise": 5564,
      "Ġhouses": 5565,
      "Ġrecon": 5566,
      "Ġapart": 5567,
      "ooth": 5568,
      "Ġdut": 5569,
      "Ġnan": 5570,
      "agues": 5571,
      "My": 5572,
      "attle": 5573,
      "Ind": 5574,
      "ĠStudies": 5575,
      "Ġpump": 5576,
      "spec": 5577,
      "hma": 5578,
      "reland": 5579,
      "Ġclosed": 5580,
      "Ġdream": 5581,
      "Ġsudden": 5582,
      "bing": 5583,
      "Ġinches": 5584,
      "Ġtrad": 5585,
      "Ġdescribes": 5586,
      "olve": 5587,
      "tenance": 5588,
      "Ġcalls": 5589,
      "Ġdriving": 5590,
      "LE": 5591,
      "Ġfrag": 5592,
      "indu": 5593,
      "mbly": 5594,
      "ĠGroup": 5595,
      "].": 5596,
      "Ġappearance": 5597,
      "Ġera": 5598,
      "Ġancest": 5599,
      "Ġflight": 5600,
      "ĠTor": 5601,
      "ota": 5602,
      "pass": 5603,
      "Ġrecip": 5604,
      "Ġinfrastructure": 5605,
      "long": 5606,
      "Ġsecure": 5607,
      "inations": 5608,
      "Ġnormally": 5609,
      "See": 5610,
      "Ġmuseum": 5611,
      "Ġcomputers": 5612,
      "ĠRome": 5613,
      "oster": 5614,
      "Ġpure": 5615,
      "ibilities": 5616,
      "Ġtow": 5617,
      "500": 5618,
      "Ġextract": 5619,
      "Ġbones": 5620,
      "ĠScient": 5621,
      "ĠCommit": 5622,
      "Ġ1999": 5623,
      "Ġsatell": 5624,
      "Ġintake": 5625,
      "Ġcandid": 5626,
      "Ġgun": 5627,
      "Ġphr": 5628,
      "Ġwire": 5629,
      "ĠTem": 5630,
      "Ġincl": 5631,
      "Ġsuffer": 5632,
      "Ġantibiot": 5633,
      "Ġmoon": 5634,
      "Ġintelligence": 5635,
      "Ġinfected": 5636,
      "Ġinterf": 5637,
      "aria": 5638,
      "Ġapprec": 5639,
      "Ġrestrict": 5640,
      "Ġcreative": 5641,
      "Ġunlike": 5642,
      "ĠCompany": 5643,
      "Ġaccepted": 5644,
      "Ġneuro": 5645,
      "55": 5646,
      "Ġmit": 5647,
      "Ġble": 5648,
      "Ġdigest": 5649,
      "Ġopened": 5650,
      "exp": 5651,
      "Ġbrown": 5652,
      "rants": 5653,
      "ĠEngine": 5654,
      "Ġunderstood": 5655,
      "Ġabsolute": 5656,
      "Ġprepare": 5657,
      "Ġstock": 5658,
      "Ġpossibly": 5659,
      "46": 5660,
      "reed": 5661,
      "uilding": 5662,
      "Ġsick": 5663,
      "ĠManagement": 5664,
      "olester": 5665,
      "ml": 5666,
      "ĠCanadian": 5667,
      "Ġinflammation": 5668,
      "Ġlifest": 5669,
      "Ġpoet": 5670,
      "Ġplate": 5671,
      "ĠVirginia": 5672,
      "ctic": 5673,
      "Ġmamm": 5674,
      "Ġadministration": 5675,
      "free": 5676,
      "Ġadopted": 5677,
      "tage": 5678,
      "Ġlibrary": 5679,
      "agers": 5680,
      "iology": 5681,
      "lements": 5682,
      "Ġnarr": 5683,
      "Ġpossibility": 5684,
      "Ġwindow": 5685,
      "Ġdoctors": 5686,
      "vironments": 5687,
      "hemical": 5688,
      "Ġsoldiers": 5689,
      "inet": 5690,
      "Ġstored": 5691,
      "plicated": 5692,
      "ĠTer": 5693,
      "othe": 5694,
      "idden": 5695,
      "add": 5696,
      "Te": 5697,
      "ĠReview": 5698,
      "Ġcomprehensive": 5699,
      "Ġcloud": 5700,
      "esity": 5701,
      "Us": 5702,
      "Ġsensitive": 5703,
      "stream": 5704,
      "Ġagencies": 5705,
      "Ġproducing": 5706,
      "ĠPower": 5707,
      "Ġenhance": 5708,
      "ĠSaf": 5709,
      "anda": 5710,
      "Ġentirely": 5711,
      "ĠOffice": 5712,
      "Ġaw": 5713,
      "ĠIN": 5714,
      "Ġ<": 5715,
      "pping": 5716,
      "Ġwear": 5717,
      "Ġnetworks": 5718,
      "ĠSum": 5719,
      "Ġpref": 5720,
      "ĠOx": 5721,
      "Ġlands": 5722,
      "Ġdust": 5723,
      "ĠLouis": 5724,
      "Ġformat": 5725,
      "ĠHam": 5726,
      "Ġrevealed": 5727,
      "flow": 5728,
      "ifies": 5729,
      "Ġscholars": 5730,
      "Ġguidelines": 5731,
      "liament": 5732,
      "rem": 5733,
      "Ġfacilit": 5734,
      "Ġlatter": 5735,
      "alysis": 5736,
      "Ġuniverse": 5737,
      "Ġsan": 5738,
      "Ġmarriage": 5739,
      "49": 5740,
      "Ġshel": 5741,
      "Ġpretty": 5742,
      "ĠNations": 5743,
      "Ġpossess": 5744,
      "ditionally": 5745,
      "ini": 5746,
      "ston": 5747,
      "anta": 5748,
      "Ġaccounts": 5749,
      "osph": 5750,
      "ĠDiv": 5751,
      "Ġlisted": 5752,
      "olesterol": 5753,
      "ĠGood": 5754,
      "Ġwildlife": 5755,
      "Ġwww": 5756,
      "Ġadequ": 5757,
      "Ġspeaking": 5758,
      "76": 5759,
      "obe": 5760,
      "being": 5761,
      "Ġsuc": 5762,
      "Ġassistance": 5763,
      "cling": 5764,
      "CS": 5765,
      "ĠLabor": 5766,
      "ĠKnow": 5767,
      "Ġsyndrome": 5768,
      "Ġframework": 5769,
      "omach": 5770,
      "Ġmassive": 5771,
      "ĠFlorida": 5772,
      "rors": 5773,
      "Ġdecline": 5774,
      "Ġtal": 5775,
      "bert": 5776,
      "Ġsecondary": 5777,
      "ĠAtt": 5778,
      "Ġforests": 5779,
      "Ġvehicles": 5780,
      "Ġindeed": 5781,
      "Ġmedication": 5782,
      "Ġlabel": 5783,
      "ĠBro": 5784,
      "Ġworse": 5785,
      "Ġcoff": 5786,
      "struct": 5787,
      "ĠIreland": 5788,
      "Ġtraffic": 5789,
      "Ġwors": 5790,
      "Ġgenerate": 5791,
      "Ġextensive": 5792,
      "Ġtroops": 5793,
      "Ġworldwide": 5794,
      "ka": 5795,
      "Ġfell": 5796,
      "ĠBet": 5797,
      "Ġtwice": 5798,
      "athy": 5799,
      "Ġimproving": 5800,
      "Ġintellect": 5801,
      "Ġfigures": 5802,
      "Ġperce": 5803,
      "Ġslowly": 5804,
      "Re": 5805,
      "eer": 5806,
      "Ġwarming": 5807,
      "itan": 5808,
      "Ġprotocol": 5809,
      "asp": 5810,
      "Ġacts": 5811,
      "Ġdiverse": 5812,
      "Ġachieved": 5813,
      "no": 5814,
      "Ġtoler": 5815,
      "ĠAlex": 5816,
      "imer": 5817,
      "ĠLeg": 5818,
      "Ġexpressed": 5819,
      "Ġtail": 5820,
      "Ġgather": 5821,
      "Ġconsid": 5822,
      "Ġtiny": 5823,
      "itt": 5824,
      "organ": 5825,
      "Ġmanaged": 5826,
      "ĠProv": 5827,
      "Go": 5828,
      "Ġelectronic": 5829,
      "Ġfill": 5830,
      "Ġchart": 5831,
      "Ġunless": 5832,
      "Ġreject": 5833,
      "Ġwave": 5834,
      "Ġnurs": 5835,
      "ioxide": 5836,
      "Ġ1980": 5837,
      "Ġlandscape": 5838,
      "ye": 5839,
      "erals": 5840,
      "aser": 5841,
      "Ġinject": 5842,
      "Ġath": 5843,
      "Cont": 5844,
      "Ġchain": 5845,
      "Ġdatabase": 5846,
      "ypes": 5847,
      "Ġmobile": 5848,
      "Ġrepeated": 5849,
      "Ġexperiments": 5850,
      "Ġfly": 5851,
      "Ġstick": 5852,
      "Ġsurvival": 5853,
      "Ġagreement": 5854,
      "Ġimper": 5855,
      "teries": 5856,
      "ĠAnn": 5857,
      "Ġanswers": 5858,
      "ĠBur": 5859,
      "Ġ31": 5860,
      "Ġtransmission": 5861,
      "Ġtun": 5862,
      "Ġstarts": 5863,
      "Ġdedic": 5864,
      "ctive": 5865,
      "Ġreaders": 5866,
      "OC": 5867,
      "Ġ1998": 5868,
      "ĠMo": 5869,
      "ĠId": 5870,
      "osal": 5871,
      "Ġcircumstances": 5872,
      "Ġinjuries": 5873,
      "ĠPC": 5874,
      "Ġcreates": 5875,
      "ĠYet": 5876,
      "Ġmanufacturing": 5877,
      "acts": 5878,
      "ĠAustralian": 5879,
      "normal": 5880,
      "Ġfailed": 5881,
      "Ġindex": 5882,
      "Ġsurf": 5883,
      "Ġengage": 5884,
      "ĠGold": 5885,
      "anged": 5886,
      "Ġstages": 5887,
      "luding": 5888,
      "Ġequival": 5889,
      "Ġsurvive": 5890,
      "Ġrub": 5891,
      "Ġaqu": 5892,
      "Ġshell": 5893,
      "Ġerror": 5894,
      "Ġstruggle": 5895,
      "Ġcalcium": 5896,
      "edu": 5897,
      "Ġabund": 5898,
      "ava": 5899,
      "rine": 5900,
      "ĠTHE": 5901,
      "Ġremote": 5902,
      "Ġconstitution": 5903,
      "abric": 5904,
      "war": 5905,
      "ansion": 5906,
      "Ġfilled": 5907,
      "Ġwaves": 5908,
      "inn": 5909,
      "Ġsell": 5910,
      "orrow": 5911,
      "ocracy": 5912,
      "âĢĺ": 5913,
      "ropical": 5914,
      "ĠMa": 5915,
      "Ġenvironments": 5916,
      "Ġminim": 5917,
      "Ġinsurance": 5918,
      "Ġfossil": 5919,
      "Ã¼": 5920,
      "Ġprem": 5921,
      "ribed": 5922,
      "ĠCommon": 5923,
      "Ġafford": 5924,
      "Ġimplementation": 5925,
      "Ġsweet": 5926,
      "Ġproduces": 5927,
      "Ġremaining": 5928,
      "Ġmountain": 5929,
      "Ġplays": 5930,
      "under": 5931,
      "47": 5932,
      "Ġbudget": 5933,
      "igation": 5934,
      "erent": 5935,
      "Ġroutine": 5936,
      "Ġgall": 5937,
      "Ġdecade": 5938,
      "Ġcopy": 5939,
      "Ġ300": 5940,
      "Ġdomin": 5941,
      "Ġinsects": 5942,
      "Ġsuitable": 5943,
      "ĠFe": 5944,
      "Ġdoubt": 5945,
      "Ġbehaviour": 5946,
      "Ġbroken": 5947,
      "Ġsupplement": 5948,
      "zen": 5949,
      "abits": 5950,
      "Ġsentence": 5951,
      "ĠThose": 5952,
      "ita": 5953,
      "Ġchoices": 5954,
      "Ġmur": 5955,
      "ĠPeter": 5956,
      "Ġcorn": 5957,
      "orith": 5958,
      "Ġhappy": 5959,
      "Ġaircraft": 5960,
      "Ġfoundation": 5961,
      "Ġharmful": 5962,
      "arant": 5963,
      "Ġdental": 5964,
      "ĠGet": 5965,
      "ona": 5966,
      "Ġinner": 5967,
      "iform": 5968,
      "oto": 5969,
      "Ġhealthcare": 5970,
      "Ġextended": 5971,
      "ĠUSA": 5972,
      "Ġtruly": 5973,
      "ua": 5974,
      "Ġselection": 5975,
      "Se": 5976,
      "UR": 5977,
      "Ġaf": 5978,
      "Ġrefuge": 5979,
      "Ġdistrict": 5980,
      "Ġsteel": 5981,
      "Ġmarked": 5982,
      "Ġobtain": 5983,
      "ĠLong": 5984,
      "Ġlaboratory": 5985,
      "ĠAbout": 5986,
      "icide": 5987,
      "icians": 5988,
      "Ġcourses": 5989,
      "Ġcultiv": 5990,
      "Ġfixed": 5991,
      "Ġedge": 5992,
      "ĠJoseph": 5993,
      "Ġunknown": 5994,
      "Ġgenerated": 5995,
      "apping": 5996,
      "Ġgal": 5997,
      "gent": 5998,
      "Ġconsistent": 5999,
      "Ġnewsp": 6000,
      "Ġseeing": 6001,
      "ki": 6002,
      "Ġcars": 6003,
      "Ġsports": 6004,
      "ĠGlobal": 6005,
      "ĠExpl": 6006,
      "Ġderived": 6007,
      "eper": 6008,
      "Ġamb": 6009,
      "inder": 6010,
      "Ġgreatly": 6011,
      "Ġcatch": 6012,
      "Ġsight": 6013,
      "Ġwish": 6014,
      "ivery": 6015,
      "orter": 6016,
      "Ġbear": 6017,
      "ĠBre": 6018,
      "________": 6019,
      "CT": 6020,
      "Ġtells": 6021,
      "ola": 6022,
      "Ġships": 6023,
      "ĠItaly": 6024,
      "body": 6025,
      "ĠOnly": 6026,
      "Ġpull": 6027,
      "born": 6028,
      "Ġ>": 6029,
      "itative": 6030,
      "Ġagency": 6031,
      "Ġacceler": 6032,
      "Ġdiscipl": 6033,
      "Ġlocations": 6034,
      "Ġaudience": 6035,
      "Ġwants": 6036,
      "Ġthor": 6037,
      "ĠMad": 6038,
      "Ġorganized": 6039,
      "Ġdifficulty": 6040,
      "En": 6041,
      "Ġdioxide": 6042,
      "ĠISBN": 6043,
      "Ġdin": 6044,
      "ints": 6045,
      "ĠChic": 6046,
      "Ġdecide": 6047,
      "ĠAny": 6048,
      "mary": 6049,
      "Ġbeneficial": 6050,
      "Ġmulti": 6051,
      "word": 6052,
      "sts": 6053,
      "Ġimmediate": 6054,
      "ĠProfessor": 6055,
      "but": 6056,
      "ĠCommittee": 6057,
      "Ġlots": 6058,
      "Ġvote": 6059,
      "ĠExp": 6060,
      "level": 6061,
      "Ġauthorities": 6062,
      "Ġ1970": 6063,
      "icon": 6064,
      "inking": 6065,
      "Ġtransition": 6066,
      "ĠVict": 6067,
      "Ġ500": 6068,
      "Ġyounger": 6069,
      "Ġprincip": 6070,
      "Ġuns": 6071,
      "Ġsignals": 6072,
      "Ġprofessionals": 6073,
      "Ġdesire": 6074,
      "ymph": 6075,
      "ĠSouthern": 6076,
      "rus": 6077,
      "Ġdaughter": 6078,
      "Ġleaf": 6079,
      "Ġrepresented": 6080,
      "ĠIll": 6081,
      "Ġcompr": 6082,
      "ĠThrough": 6083,
      "Ġindicates": 6084,
      "Ġsharing": 6085,
      "bridge": 6086,
      ".âĢĻ": 6087,
      "Ġconsumers": 6088,
      "last": 6089,
      "Ġenable": 6090,
      "Ġpermanent": 6091,
      "ny": 6092,
      "Ġhus": 6093,
      "sey": 6094,
      "inction": 6095,
      "Ġdescription": 6096,
      "Ġstomach": 6097,
      "ĠBrown": 6098,
      "Ġdensity": 6099,
      "ĠLab": 6100,
      "Ġparalle": 6101,
      "Read": 6102,
      "burg": 6103,
      "lets": 6104,
      "Ġunp": 6105,
      "Ġmaintenance": 6106,
      "Ġopening": 6107,
      "isk": 6108,
      "Ġcritic": 6109,
      "Ġcolleagues": 6110,
      "Ġinstitution": 6111,
      "Ġsubs": 6112,
      "Ġfewer": 6113,
      "Ġbattery": 6114,
      "ront": 6115,
      "Ġfalse": 6116,
      "Ġstanding": 6117,
      "ĠOF": 6118,
      "Ġjourney": 6119,
      "Ġmechanism": 6120,
      "Ġphotograph": 6121,
      "ĠRad": 6122,
      "Ġsolve": 6123,
      "Ġtraum": 6124,
      "Ġfunds": 6125,
      "Can": 6126,
      "Ġopposite": 6127,
      "Ġsupplies": 6128,
      "stone": 6129,
      "77": 6130,
      "Ġskill": 6131,
      "Ġstudying": 6132,
      "Ġdestroyed": 6133,
      "ĠNorthern": 6134,
      "Ġsuccessfully": 6135,
      "Ġgrav": 6136,
      "Ġcomposition": 6137,
      "Ġelectron": 6138,
      "ĠAcademy": 6139,
      "Ġdoor": 6140,
      "Ġshut": 6141,
      "elled": 6142,
      "ĠHall": 6143,
      "from": 6144,
      "Ġunable": 6145,
      "kins": 6146,
      "ĠParis": 6147,
      "Ġethnic": 6148,
      "Ġfasc": 6149,
      "ogue": 6150,
      "Ġzone": 6151,
      "hand": 6152,
      "Ġfounded": 6153,
      "Ġcarefully": 6154,
      "wo": 6155,
      "called": 6156,
      "Ġchildhood": 6157,
      "ĠSpain": 6158,
      "ena": 6159,
      "Since": 6160,
      "BS": 6161,
      "ĠHome": 6162,
      "Ġax": 6163,
      "Ġroof": 6164,
      "ĠReport": 6165,
      "American": 6166,
      "ĠCult": 6167,
      "Ġsky": 6168,
      "ĠCancer": 6169,
      "iration": 6170,
      "antly": 6171,
      "Stud": 6172,
      "cel": 6173,
      "95": 6174,
      "Ġattend": 6175,
      "Ġoptim": 6176,
      "ĠSk": 6177,
      "phone": 6178,
      "Ġsupports": 6179,
      "Ġsod": 6180,
      "isters": 6181,
      "ĠStat": 6182,
      "clop": 6183,
      "ipping": 6184,
      "Ġresponses": 6185,
      "Ġsimpl": 6186,
      "Ġpowers": 6187,
      "ca": 6188,
      "heast": 6189,
      "Ġflav": 6190,
      "Ġcloser": 6191,
      "ĠSl": 6192,
      "ifications": 6193,
      "ĠCare": 6194,
      "Ã³": 6195,
      "esis": 6196,
      "âĢĻ,": 6197,
      "Ġinteraction": 6198,
      "abul": 6199,
      "wing": 6200,
      "gu": 6201,
      "UN": 6202,
      "Ġacids": 6203,
      "Ġreplaced": 6204,
      "Ġscript": 6205,
      "Ġcircuit": 6206,
      "Ġourselves": 6207,
      "Ġregulations": 6208,
      "igned": 6209,
      "Ġthousand": 6210,
      "Ġaccum": 6211,
      "lder": 6212,
      "Ġremark": 6213,
      "Ġmolecules": 6214,
      "Ġshift": 6215,
      "Ġlimits": 6216,
      "zil": 6217,
      "Ġgone": 6218,
      "fortunately": 6219,
      "izer": 6220,
      "Ġpurchase": 6221,
      "ĠMag": 6222,
      "ashion": 6223,
      "Ġneck": 6224,
      "Ġemotions": 6225,
      "nect": 6226,
      "ĠKh": 6227,
      "Ġreader": 6228,
      "Figure": 6229,
      "Ġcholesterol": 6230,
      "Ġarrived": 6231,
      "ĠTime": 6232,
      "Ġultimately": 6233,
      "Ġwalking": 6234,
      "tra": 6235,
      "Ġvessels": 6236,
      "pet": 6237,
      "Ġfiber": 6238,
      "ĠCamp": 6239,
      "ĠDisease": 6240,
      "Ġcultures": 6241,
      "gans": 6242,
      "Ġamaz": 6243,
      "Ġboost": 6244,
      "Ġstands": 6245,
      "DP": 6246,
      "cher": 6247,
      "Ġintervention": 6248,
      "Ġdedicated": 6249,
      "ĠBul": 6250,
      "Ġhandle": 6251,
      "then": 6252,
      "ums": 6253,
      "Ġbiggest": 6254,
      "Ġoutl": 6255,
      "Ġcarb": 6256,
      "itter": 6257,
      "riting": 6258,
      "Ġlifestyle": 6259,
      "ĠPub": 6260,
      "umes": 6261,
      "Ġlisten": 6262,
      "Ġconventional": 6263,
      "Ġnine": 6264,
      "Ġchosen": 6265,
      "Ġcolour": 6266,
      "Ġserver": 6267,
      "ĠStudy": 6268,
      "fish": 6269,
      "Ġpra": 6270,
      "Ġknows": 6271,
      "Pe": 6272,
      "Ġends": 6273,
      "Ġunus": 6274,
      "throp": 6275,
      "ĠDan": 6276,
      "ĠGal": 6277,
      "Ġalle": 6278,
      "ĠNatural": 6279,
      "Ġreserv": 6280,
      "Ġgluc": 6281,
      "Ġwilling": 6282,
      "Ġbehaviors": 6283,
      "kes": 6284,
      "opy": 6285,
      "Ġclust": 6286,
      "rating": 6287,
      "Ġjoin": 6288,
      "Ġalgorith": 6289,
      "Ġsupporting": 6290,
      "ĠIrish": 6291,
      "Ġaer": 6292,
      "Ġoccasion": 6293,
      "stein": 6294,
      "Ġadministr": 6295,
      "ĠAI": 6296,
      "ĠHaw": 6297,
      "ctor": 6298,
      "aped": 6299,
      "Ġsurve": 6300,
      "Ġcoffee": 6301,
      "Ġoverl": 6302,
      "Ġ185": 6303,
      "Ġmagnetic": 6304,
      "Ġsequence": 6305,
      "ĠPenn": 6306,
      "Ġconcrete": 6307,
      "Ġphilosophy": 6308,
      "Ġregul": 6309,
      "irty": 6310,
      "Ġsucceed": 6311,
      "Ġraw": 6312,
      "IL": 6313,
      "Ġbread": 6314,
      "Ġattached": 6315,
      "Ġnecessarily": 6316,
      "ĠStreet": 6317,
      "ĠRob": 6318,
      "pan": 6319,
      "zed": 6320,
      "ester": 6321,
      "otion": 6322,
      "Ġcomparison": 6323,
      "Ġpersist": 6324,
      "Ġmarried": 6325,
      "Ġcomments": 6326,
      "Ġmixed": 6327,
      "ĠSciences": 6328,
      "Ġtransportation": 6329,
      "Ġcats": 6330,
      "ĠAS": 6331,
      "Ġexists": 6332,
      "Ġfighting": 6333,
      "Ġcryst": 6334,
      "Ġvulnerable": 6335,
      "ĠEth": 6336,
      "Ġeastern": 6337,
      "Ġcommunicate": 6338,
      "Ġdebate": 6339,
      "etime": 6340,
      "tic": 6341,
      "Ġastr": 6342,
      "Ġstroke": 6343,
      "ĠSol": 6344,
      "rd": 6345,
      "Ġpron": 6346,
      "Ġhousing": 6347,
      "Ġmos": 6348,
      "Ġmild": 6349,
      "rovers": 6350,
      "agon": 6351,
      "Bl": 6352,
      "ĠClin": 6353,
      "ĠValley": 6354,
      "Ġturns": 6355,
      "Ġvoc": 6356,
      "Ġgrew": 6357,
      "Ġdrawing": 6358,
      "Ġarchitecture": 6359,
      "Ġ1997": 6360,
      "ĠFrank": 6361,
      "ribe": 6362,
      "struction": 6363,
      "ĠIP": 6364,
      "Ġmac": 6365,
      "Ġpus": 6366,
      "Ġlies": 6367,
      "Ġwhatever": 6368,
      "Ġevaluation": 6369,
      "Ġfeeding": 6370,
      "Ġepid": 6371,
      "Ġsupposed": 6372,
      "utch": 6373,
      "ictionary": 6374,
      "Ġrank": 6375,
      "Ġhydrogen": 6376,
      "earchers": 6377,
      "Ġacknow": 6378,
      "Ġrequest": 6379,
      "Ã¶": 6380,
      "Ġyield": 6381,
      "Ġissued": 6382,
      "ĠEmpire": 6383,
      "Ġuniversity": 6384,
      "Ġmechanisms": 6385,
      "Ġenemy": 6386,
      "Ġguarant": 6387,
      "ĠExt": 6388,
      "Ġcompounds": 6389,
      "ĠBoard": 6390,
      "Ġrelax": 6391,
      "irds": 6392,
      "Ġwitness": 6393,
      "ett": 6394,
      "ĠAdminist": 6395,
      "Ġvoltage": 6396,
      "Ġtaste": 6397,
      "Ġcapture": 6398,
      "Ġborder": 6399,
      "Ġjoined": 6400,
      "orous": 6401,
      "ait": 6402,
      "Ġcustomers": 6403,
      "Ġterritory": 6404,
      "hether": 6405,
      "ĠCap": 6406,
      "Ġkit": 6407,
      "een": 6408,
      "hop": 6409,
      "Ġcutting": 6410,
      "bur": 6411,
      "such": 6412,
      "Ġrhy": 6413,
      "ĠParty": 6414,
      "top": 6415,
      "Ġratio": 6416,
      "Ġcart": 6417,
      "Ġinstruments": 6418,
      "Ġrid": 6419,
      "Ġresolution": 6420,
      "ora": 6421,
      "Ġunderlying": 6422,
      "Ġresulted": 6423,
      "ĠAdd": 6424,
      "Ġusage": 6425,
      "Ġcontained": 6426,
      "Ġrising": 6427,
      "01": 6428,
      "ĠBank": 6429,
      "ĠMill": 6430,
      "Ġwhereas": 6431,
      "Ġemployment": 6432,
      "ĠPM": 6433,
      "ocy": 6434,
      "Ġarrange": 6435,
      "ĠRichard": 6436,
      "Ġprove": 6437,
      "Ġtea": 6438,
      "Ġvariable": 6439,
      "Ġhabits": 6440,
      "Ġdefe": 6441,
      "ĠMichael": 6442,
      "Ġfabric": 6443,
      "Ġgap": 6444,
      "ĠItalian": 6445,
      "Ġhighlight": 6446,
      "Ġpercentage": 6447,
      "Ġbreathing": 6448,
      "Ġprompt": 6449,
      "Ġparticipate": 6450,
      "Ġpool": 6451,
      "Ġhoriz": 6452,
      "Ġwriter": 6453,
      "Ġreactions": 6454,
      "ĠCat": 6455,
      "peror": 6456,
      "ĠVis": 6457,
      "Ġbrand": 6458,
      "ĠOcean": 6459,
      "Ġdistur": 6460,
      "Ġexplo": 6461,
      "Ġearthqu": 6462,
      "Ġpsychological": 6463,
      "LA": 6464,
      "Ġhero": 6465,
      "Ġmachines": 6466,
      "Ġshot": 6467,
      "EP": 6468,
      "Ġconnections": 6469,
      "Let": 6470,
      "Ġcontamin": 6471,
      "Ġblocks": 6472,
      "ĠGard": 6473,
      "Ġpreval": 6474,
      "uter": 6475,
      "Ġnearby": 6476,
      "ĠRoyal": 6477,
      "05": 6478,
      "66": 6479,
      "how": 6480,
      "hav": 6481,
      "omic": 6482,
      "Ġtrained": 6483,
      "bour": 6484,
      "Ġstable": 6485,
      "Ġcentre": 6486,
      "Ġdownload": 6487,
      "ĠAgricult": 6488,
      "ourage": 6489,
      "itudes": 6490,
      "while": 6491,
      "comm": 6492,
      "Ġnerve": 6493,
      "Ġregist": 6494,
      "ults": 6495,
      "ĠColor": 6496,
      "Ġkidney": 6497,
      "Ġorganisms": 6498,
      "ĠCarolina": 6499,
      "iah": 6500,
      "Ġmice": 6501,
      "Ġteen": 6502,
      "Ġobservations": 6503,
      "ups": 6504,
      "quit": 6505,
      "plant": 6506,
      "Ġfrequent": 6507,
      "ih": 6508,
      "Ġequivalent": 6509,
      "iability": 6510,
      "hered": 6511,
      "abled": 6512,
      "ĠDesign": 6513,
      "ĠPan": 6514,
      "Ġdelivery": 6515,
      "Ġshop": 6516,
      "Ġexplanation": 6517,
      "inity": 6518,
      "Ġplayers": 6519,
      "ediatric": 6520,
      "Ġdemonstrated": 6521,
      "Ġbio": 6522,
      "riers": 6523,
      "Ġtwenty": 6524,
      "ĠSecurity": 6525,
      "ĠViet": 6526,
      "Ġmatters": 6527,
      "%)": 6528,
      "ĠTimes": 6529,
      "Ġpassage": 6530,
      "Ġparticipation": 6531,
      "Ġahead": 6532,
      "Ġmanif": 6533,
      "Ġtall": 6534,
      "erior": 6535,
      "Ġflag": 6536,
      "ĠExper": 6537,
      "Ġcards": 6538,
      "Ġstring": 6539,
      "Ġrecognition": 6540,
      "Ġdemonstrate": 6541,
      "Ġhem": 6542,
      "Ġlayers": 6543,
      "Ġnoise": 6544,
      "eless": 6545,
      "xts": 6546,
      "Ġelection": 6547,
      "ĠIII": 6548,
      "osion": 6549,
      "Ġbot": 6550,
      "Ġmand": 6551,
      "Int": 6552,
      "raq": 6553,
      "roduction": 6554,
      "Ġprev": 6555,
      "ĠStep": 6556,
      "icit": 6557,
      "Ġforth": 6558,
      "idity": 6559,
      "Ġwasn": 6560,
      "Ġsoul": 6561,
      "79": 6562,
      "Ġcounty": 6563,
      "Ġdelay": 6564,
      "43": 6565,
      "Ġobesity": 6566,
      "Ġ1960": 6567,
      "Ġcrow": 6568,
      "Ġsmoke": 6569,
      "orses": 6570,
      "irt": 6571,
      "ĠWood": 6572,
      "Ġpolitics": 6573,
      "ĠChicago": 6574,
      "ugh": 6575,
      "Ġaccident": 6576,
      "Ġfeedback": 6577,
      "inating": 6578,
      "espread": 6579,
      "Ġcompetition": 6580,
      "Ġpartner": 6581,
      "Ġveter": 6582,
      "Ġhypothes": 6583,
      "ĠRevolution": 6584,
      "Ġpup": 6585,
      "Ġinstructions": 6586,
      "Ġcup": 6587,
      "Ġbeliefs": 6588,
      "Ġspok": 6589,
      "Not": 6590,
      "ĠDet": 6591,
      "Ġdefine": 6592,
      "icious": 6593,
      "uts": 6594,
      "Ġgreenhouse": 6595,
      "ĠHoly": 6596,
      "ĠClimate": 6597,
      "Ġtrials": 6598,
      "Ġlegs": 6599,
      "ĠWik": 6600,
      "ĠEnd": 6601,
      "ployment": 6602,
      "First": 6603,
      "eers": 6604,
      "etics": 6605,
      "Ġgenerations": 6606,
      "Ġelectro": 6607,
      "ĠFace": 6608,
      "ulty": 6609,
      "Ġexamine": 6610,
      "Ġinhib": 6611,
      "Ġmold": 6612,
      "stract": 6613,
      "Ġconfidence": 6614,
      "Ġ1996": 6615,
      "Ġ1995": 6616,
      "Ġholds": 6617,
      "cul": 6618,
      "ether": 6619,
      "Ġartificial": 6620,
      "aine": 6621,
      "Ġfever": 6622,
      "Ġimprovement": 6623,
      "Ġrelation": 6624,
      "Ġpresentation": 6625,
      "Ġdomain": 6626,
      "Ġstreet": 6627,
      "ella": 6628,
      "ĠScott": 6629,
      "uh": 6630,
      "cons": 6631,
      "Ġnone": 6632,
      "ĠOh": 6633,
      "ĠFort": 6634,
      "scale": 6635,
      "Ġcoastal": 6636,
      "Ġcrime": 6637,
      "aud": 6638,
      "arn": 6639,
      "Ġeveryday": 6640,
      "itivity": 6641,
      "Ġearn": 6642,
      "Ġnob": 6643,
      "Ġbutter": 6644,
      "ittle": 6645,
      "Ġchrom": 6646,
      "Ġzero": 6647,
      "Ġcommitted": 6648,
      "IP": 6649,
      "cture": 6650,
      "Ġnegot": 6651,
      "ĠFree": 6652,
      "Ġbridge": 6653,
      "Ġrow": 6654,
      "Ġdanger": 6655,
      "Ġagreed": 6656,
      "Ġconsumer": 6657,
      "Ġsmoking": 6658,
      "ditional": 6659,
      "Ġtissues": 6660,
      "eenth": 6661,
      "rat": 6662,
      "Ġobjective": 6663,
      "Ġru": 6664,
      "ented": 6665,
      "Ġbiod": 6666,
      "urrent": 6667,
      "Ġfu": 6668,
      "tering": 6669,
      "Ġdiagnosed": 6670,
      "arsh": 6671,
      "ĠDig": 6672,
      "ĠNative": 6673,
      "Ġfold": 6674,
      "Ġaward": 6675,
      "Ġ36": 6676,
      "Ġmode": 6677,
      "Ġentry": 6678,
      "Ġinsulin": 6679,
      "Ġmaps": 6680,
      "Ġestimate": 6681,
      "88": 6682,
      "Ġtrip": 6683,
      "Rec": 6684,
      "41": 6685,
      "Ġongoing": 6686,
      "Ġfunctional": 6687,
      "itely": 6688,
      "Â·": 6689,
      "aked": 6690,
      "everal": 6691,
      "Ġdebt": 6692,
      "IR": 6693,
      "ureau": 6694,
      "Ġhur": 6695,
      "teen": 6696,
      "Ġcamera": 6697,
      "Ġlegislation": 6698,
      "42": 6699,
      "usiness": 6700,
      "ĠEss": 6701,
      "Ġcalories": 6702,
      "Ġdestruction": 6703,
      "Ġlaunched": 6704,
      "onia": 6705,
      "Ġille": 6706,
      "Ġsections": 6707,
      "ighter": 6708,
      "ibl": 6709,
      "Ġcovers": 6710,
      "asters": 6711,
      "ĠForm": 6712,
      "Ġholding": 6713,
      "Ġmatch": 6714,
      "Ġpositions": 6715,
      "Ġaccessible": 6716,
      "Ġhun": 6717,
      "utrition": 6718,
      "Ġrocks": 6719,
      "raining": 6720,
      "iratory": 6721,
      "Ġdollars": 6722,
      "Ġring": 6723,
      "Ġemployed": 6724,
      "Ġburning": 6725,
      "Ġinvolving": 6726,
      "oples": 6727,
      "Ġflo": 6728,
      "Ġruns": 6729,
      "Ġblow": 6730,
      "Ġholid": 6731,
      "Ġundert": 6732,
      "Ġoperate": 6733,
      "ĠKeep": 6734,
      "Ġsacr": 6735,
      "using": 6736,
      "Ġ75": 6737,
      "Ġdepartment": 6738,
      "ĠBrazil": 6739,
      "Lear": 6740,
      "Ġintegrated": 6741,
      "Ġrivers": 6742,
      "Ġlegisl": 6743,
      "Ġestimates": 6744,
      "orph": 6745,
      "Ġintellectual": 6746,
      "alm": 6747,
      "ifts": 6748,
      "earing": 6749,
      "Ġgram": 6750,
      "Ġconstructed": 6751,
      "gov": 6752,
      "Ġconclusion": 6753,
      "isdom": 6754,
      "cyclop": 6755,
      "Ġexercises": 6756,
      "Ġsheet": 6757,
      "Of": 6758,
      "....": 6759,
      "Ġended": 6760,
      "Ġorient": 6761,
      "Ġarrest": 6762,
      "Ġmeters": 6763,
      "Ġroute": 6764,
      "Ġvictims": 6765,
      "Ġdoi": 6766,
      "Ġbrings": 6767,
      "she": 6768,
      "Ġpapers": 6769,
      "Ġspaces": 6770,
      "Ġpainting": 6771,
      "Ġcircle": 6772,
      "ĠServices": 6773,
      "Ġrecept": 6774,
      "Ġchallenging": 6775,
      "Ġsole": 6776,
      "Ġinteractions": 6777,
      "Ġfract": 6778,
      "Ġforget": 6779,
      "Ġcrim": 6780,
      "Ġrice": 6781,
      "Ġspending": 6782,
      "Ġvolcan": 6783,
      "ĠIndians": 6784,
      "Ġprogramming": 6785,
      "Ġassociation": 6786,
      "rary": 6787,
      "anches": 6788,
      "ala": 6789,
      "Ġphysics": 6790,
      "Ġmaintaining": 6791,
      "yles": 6792,
      "Ġment": 6793,
      "Ġdrawn": 6794,
      "Ġrealize": 6795,
      "Ġpregnant": 6796,
      "hesis": 6797,
      "ĠScot": 6798,
      "Ġsubstances": 6799,
      "Ġdivision": 6800,
      "Ġloved": 6801,
      "ĠAtlantic": 6802,
      "Ġreven": 6803,
      "Ġorgans": 6804,
      "Ġmembr": 6805,
      "OL": 6806,
      "Ġindependence": 6807,
      "Ġscan": 6808,
      "Ġexpansion": 6809,
      "Ġminerals": 6810,
      "Ġislands": 6811,
      "Ġrelief": 6812,
      "inson": 6813,
      "ĠKingdom": 6814,
      "weight": 6815,
      "Ġparallel": 6816,
      "Ġindustries": 6817,
      "Ġneither": 6818,
      "azine": 6819,
      "ĠZeal": 6820,
      "Ġbreath": 6821,
      "ĠPract": 6822,
      "ritis": 6823,
      "Ġasthma": 6824,
      "fit": 6825,
      "Ġkne": 6826,
      "Ġwidespread": 6827,
      "Ġdiscrimination": 6828,
      "ĠAccess": 6829,
      "ishment": 6830,
      "Ġ150": 6831,
      "Ġped": 6832,
      "Ġscene": 6833,
      "opes": 6834,
      "ĠHave": 6835,
      "Ġsomewhat": 6836,
      "Ġpair": 6837,
      "igan": 6838,
      "Ġchick": 6839,
      "ĠEqu": 6840,
      "Ġmanip": 6841,
      "Ġdamaged": 6842,
      "Ġsail": 6843,
      "Ġdent": 6844,
      "Ġrepair": 6845,
      "Ġglucose": 6846,
      "Ġboy": 6847,
      "ĠCop": 6848,
      "Le": 6849,
      "Your": 6850,
      "ĠDiff": 6851,
      "Ġreliable": 6852,
      "gs": 6853,
      "reated": 6854,
      "Ġcolumn": 6855,
      "Ġ32": 6856,
      "liest": 6857,
      "Once": 6858,
      "ĠEarly": 6859,
      "IA": 6860,
      "Ġsettings": 6861,
      "ading": 6862,
      "Ġdepart": 6863,
      "Ġmerely": 6864,
      "Ġentered": 6865,
      "Ġreceiving": 6866,
      "ĠEastern": 6867,
      "Ġpublication": 6868,
      "Ġmarkets": 6869,
      "Ġmood": 6870,
      "Ġprohib": 6871,
      "Ġconven": 6872,
      "Ġmolecular": 6873,
      "Ġcategories": 6874,
      "ĠDen": 6875,
      "Ġtexts": 6876,
      "Ġphoto": 6877,
      "Ġframe": 6878,
      "Ġtank": 6879,
      "ĠPy": 6880,
      "Ġputting": 6881,
      "ĠGuide": 6882,
      "asty": 6883,
      "Ġdistributed": 6884,
      "ĠVictor": 6885,
      "ĠSing": 6886,
      "ĠRom": 6887,
      "Ġproportion": 6888,
      "Ġtons": 6889,
      "Ġcontrols": 6890,
      "Ġdeclared": 6891,
      "Ġoutbre": 6892,
      "Ġstrongly": 6893,
      "ĠMartin": 6894,
      "Ġsmooth": 6895,
      "ĠAge": 6896,
      "ĠBab": 6897,
      "Ġapproved": 6898,
      "Ġindicated": 6899,
      "htt": 6900,
      "itamin": 6901,
      "andon": 6902,
      "Ġguidance": 6903,
      "ĠZealand": 6904,
      "Ġneur": 6905,
      "alls": 6906,
      "Ġtrouble": 6907,
      "ady": 6908,
      "Ġcontrovers": 6909,
      "Ġske": 6910,
      "Ġrely": 6911,
      "ĠMer": 6912,
      "ĠNaz": 6913,
      "Ġvs": 6914,
      "Ġconstantly": 6915,
      "CD": 6916,
      "Even": 6917,
      "Ġhistoric": 6918,
      "ĠLanguage": 6919,
      "Ġrig": 6920,
      "ohyd": 6921,
      "Ġswim": 6922,
      "ĠGeorg": 6923,
      "hent": 6924,
      "Ġbanks": 6925,
      "gers": 6926,
      "Ġdesigns": 6927,
      "Ġfemales": 6928,
      "Ġpounds": 6929,
      "Ġvirtual": 6930,
      "Ġadvert": 6931,
      "inally": 6932,
      "Ġmissing": 6933,
      "Ġturning": 6934,
      "Ġmoisture": 6935,
      "Qu": 6936,
      "mes": 6937,
      "Ġthanks": 6938,
      "IG": 6939,
      "Over": 6940,
      "Ġcomposed": 6941,
      "Ġpoison": 6942,
      "Ġtight": 6943,
      "making": 6944,
      "Ġroles": 6945,
      "Ġtemple": 6946,
      "ĠTake": 6947,
      "opic": 6948,
      "yroid": 6949,
      "Ġcm": 6950,
      "ĠAgency": 6951,
      "ĠIraq": 6952,
      "dule": 6953,
      "Ġnitrogen": 6954,
      "car": 6955,
      "Ġtel": 6956,
      "Ġbeings": 6957,
      "Ġmessages": 6958,
      "Ġphenomenon": 6959,
      "rane": 6960,
      "health": 6961,
      "Ġsought": 6962,
      "Ġfurn": 6963,
      "ocation": 6964,
      "Ġofficers": 6965,
      "Ġboys": 6966,
      "Ġhonor": 6967,
      "Ġcenters": 6968,
      "Ġintense": 6969,
      "Ġclaimed": 6970,
      "ĠMD": 6971,
      "umps": 6972,
      "Ġmicrob": 6973,
      "Ġwait": 6974,
      "ĠColumbia": 6975,
      "Ġworry": 6976,
      "Ġpanel": 6977,
      "Ġfro": 6978,
      "85": 6979,
      "ĠBig": 6980,
      "Ġnervous": 6981,
      "ĠÐ": 6982,
      "Ġevaluate": 6983,
      "Don": 6984,
      "Ġasking": 6985,
      "abulary": 6986,
      "ivered": 6987,
      "ĠFamily": 6988,
      "rial": 6989,
      "Ġfulf": 6990,
      "Ġstatistics": 6991,
      "Ġmales": 6992,
      "Ġhole": 6993,
      "VID": 6994,
      "Ġcoc": 6995,
      "Ġadequate": 6996,
      "Ġmm": 6997,
      "olesc": 6998,
      "Ġoblig": 6999,
      "Ġcategory": 7000,
      "CE": 7001,
      "Ġfourth": 7002,
      "rey": 7003,
      "Ġstrict": 7004,
      "ortion": 7005,
      "Ġsignificance": 7006,
      "Ġdisaster": 7007,
      "ĠCreat": 7008,
      "Ġmoves": 7009,
      "Ġbringing": 7010,
      "ĠProp": 7011,
      "heric": 7012,
      "Ġmaintained": 7013,
      "Ġviruses": 7014,
      "Ġstre": 7015,
      "Ġwithd": 7016,
      "Ġmeasurements": 7017,
      "heimer": 7018,
      "ĠWhere": 7019,
      "Ġinterpretation": 7020,
      "Ġcontemporary": 7021,
      "Ġhusband": 7022,
      "Ġengaged": 7023,
      "Ġconversation": 7024,
      "Ġrecommendations": 7025,
      "Ġtelevision": 7026,
      "Ġnest": 7027,
      "Ġempt": 7028,
      "ĠAsian": 7029,
      "Ġannounced": 7030,
      "forcement": 7031,
      "Ġagents": 7032,
      "ĠPop": 7033,
      "Ġseemed": 7034,
      "SS": 7035,
      "oding": 7036,
      "aded": 7037,
      "Ġcriminal": 7038,
      "ano": 7039,
      "ĠMel": 7040,
      "Ġmeal": 7041,
      "reek": 7042,
      "Ġbabies": 7043,
      "ĠAngel": 7044,
      "ĠAcc": 7045,
      "operation": 7046,
      "Ġassume": 7047,
      "Ġserving": 7048,
      "sis": 7049,
      "Ġforg": 7050,
      "ĠYear": 7051,
      "Ġchest": 7052,
      "va": 7053,
      "Ġoffering": 7054,
      "Ġinstalled": 7055,
      "Ġarchae": 7056,
      "ĠCoast": 7057,
      "TM": 7058,
      "Ġtheories": 7059,
      "Ġoutcome": 7060,
      "ĠChristmas": 7061,
      "Am": 7062,
      "RA": 7063,
      "ĠForest": 7064,
      "Ġcompare": 7065,
      "Ġdefense": 7066,
      "Ġ65": 7067,
      "Ġlake": 7068,
      "rowing": 7069,
      "Ġcarrying": 7070,
      "ĠâĢ¢": 7071,
      "Ġrenewable": 7072,
      "ĠCast": 7073,
      "Ġfacility": 7074,
      "ĠDar": 7075,
      "ĠChange": 7076,
      "Ġcosm": 7077,
      "Ġblind": 7078,
      "Ġpharm": 7079,
      "rite": 7080,
      "Ġtowns": 7081,
      "Ġfacing": 7082,
      "Ġmining": 7083,
      "ipedia": 7084,
      "Ġrarely": 7085,
      "pes": 7086,
      "Ġid": 7087,
      "Ġescape": 7088,
      "eren": 7089,
      "Ġplane": 7090,
      "Ġmineral": 7091,
      "ĠTV": 7092,
      "Ġbeauty": 7093,
      "Ġingredients": 7094,
      "iral": 7095,
      "onds": 7096,
      "Ġreduces": 7097,
      "ĠDirector": 7098,
      "ĠSecret": 7099,
      "CH": 7100,
      "ĠSup": 7101,
      "ĠHill": 7102,
      "ĠBefore": 7103,
      "Ġseeking": 7104,
      "Ġathlet": 7105,
      "herent": 7106,
      "Ġplus": 7107,
      "idential": 7108,
      "Ġconfirmed": 7109,
      "ĠSar": 7110,
      "ĠOxford": 7111,
      "Ġfashion": 7112,
      "ĠThough": 7113,
      "Ġbath": 7114,
      "ĠCy": 7115,
      "ĠPlease": 7116,
      "Ġtheme": 7117,
      "Ġtom": 7118,
      "irus": 7119,
      "including": 7120,
      "Ġshock": 7121,
      "ĠResources": 7122,
      "Ġdependent": 7123,
      "ĠAP": 7124,
      "Ġlaunch": 7125,
      "Ġproof": 7126,
      "Ġvac": 7127,
      "Ġcompens": 7128,
      "Ġpreparation": 7129,
      "Ġimplications": 7130,
      "71": 7131,
      "Because": 7132,
      "ĠEffect": 7133,
      "Ġbiology": 7134,
      "IM": 7135,
      "acher": 7136,
      "Ġtract": 7137,
      "Ġartists": 7138,
      "fl": 7139,
      "usal": 7140,
      "Ġheating": 7141,
      "IDS": 7142,
      "Ġmathematics": 7143,
      "OM": 7144,
      "Ġroughly": 7145,
      "Ġjudge": 7146,
      "yal": 7147,
      "Ġminute": 7148,
      "Ġvisitors": 7149,
      "ĠPet": 7150,
      "Ġexamination": 7151,
      "Ġtub": 7152,
      "Ġbees": 7153,
      "Ġincred": 7154,
      "Ġtargets": 7155,
      "Ġplanned": 7156,
      "Ġweapons": 7157,
      "Ġinfect": 7158,
      "Ġneighborhood": 7159,
      "%.": 7160,
      "72": 7161,
      "uits": 7162,
      "ĠDistrict": 7163,
      "ĠSometimes": 7164,
      "Ġclothing": 7165,
      "Ġinterpre": 7166,
      "73": 7167,
      "Ġsharp": 7168,
      "06": 7169,
      "Med": 7170,
      "Ġaims": 7171,
      "Ġfavorite": 7172,
      "medi": 7173,
      "Ġinher": 7174,
      "ĠPolic": 7175,
      "orders": 7176,
      "Ġcareful": 7177,
      "ĠNetwork": 7178,
      "Every": 7179,
      "ĠFund": 7180,
      "Me": 7181,
      "Ġcav": 7182,
      "UT": 7183,
      "ocial": 7184,
      "Ġpassing": 7185,
      "net": 7186,
      "ollowing": 7187,
      "Ġcrew": 7188,
      "rooms": 7189,
      "Ġcomplicated": 7190,
      "iological": 7191,
      "Ġsatellite": 7192,
      "Ġnose": 7193,
      "ĠList": 7194,
      "Ġaccuracy": 7195,
      "Ġsurfaces": 7196,
      "Ġphotos": 7197,
      "Ġwriters": 7198,
      "Note": 7199,
      "ommod": 7200,
      "ĠCentre": 7201,
      "Ġopposed": 7202,
      "ĠWindows": 7203,
      "ĠArticle": 7204,
      "oir": 7205,
      "Ġevil": 7206,
      "sm": 7207,
      "Ġtheore": 7208,
      "airy": 7209,
      "Ġdesired": 7210,
      "CA": 7211,
      "ĠSat": 7212,
      "Ġdelivered": 7213,
      "ruption": 7214,
      "Ġ400": 7215,
      "Ġdefend": 7216,
      "Ġcollaboration": 7217,
      "Ġhorses": 7218,
      "ĠWord": 7219,
      "ani": 7220,
      "ĠVen": 7221,
      "Ġattempts": 7222,
      "oric": 7223,
      "ĠBill": 7224,
      "ĠJac": 7225,
      "ounded": 7226,
      "oln": 7227,
      "Ġordered": 7228,
      "trans": 7229,
      "ĠLar": 7230,
      "esides": 7231,
      "Ġelected": 7232,
      "ĠSpecial": 7233,
      "Ġsigned": 7234,
      "Ġknowing": 7235,
      "Ġfairly": 7236,
      "Ġconsiderable": 7237,
      "Ġimplemented": 7238,
      "apse": 7239,
      "Ġabandon": 7240,
      "thritis": 7241,
      "Ġcombat": 7242,
      "Ġprincipal": 7243,
      "ĠHy": 7244,
      "itual": 7245,
      "adder": 7246,
      "theless": 7247,
      "Ġgradually": 7248,
      "ĠOrganization": 7249,
      "occ": 7250,
      "agram": 7251,
      "Ġtut": 7252,
      "Ġstructural": 7253,
      "Ġmeasurement": 7254,
      "Ġcaptured": 7255,
      "oured": 7256,
      "Ġeffectiveness": 7257,
      "Ġseconds": 7258,
      "Ġcriteria": 7259,
      "ĠPen": 7260,
      "Ġplenty": 7261,
      "Ġfinished": 7262,
      "ixture": 7263,
      "Ġconsidering": 7264,
      "ĠDev": 7265,
      "Ġencouraged": 7266,
      "ersonal": 7267,
      "Ġsurprising": 7268,
      "Ġshapes": 7269,
      "Ġessentially": 7270,
      "ĠMoreover": 7271,
      "ĠGrand": 7272,
      "Ġequally": 7273,
      "ĠCre": 7274,
      "Ġtraditions": 7275,
      "Ġinn": 7276,
      "oven": 7277,
      "Su": 7278,
      "ogether": 7279,
      "86": 7280,
      "Ġphysician": 7281,
      "aska": 7282,
      "Ġmechanical": 7283,
      "ĠMen": 7284,
      "ĠLib": 7285,
      "Ġdefect": 7286,
      "Ġphosph": 7287,
      "Ġinformed": 7288,
      "Ġrespectively": 7289,
      "isco": 7290,
      "Ġstronger": 7291,
      "Ġsubsequent": 7292,
      "Ġradical": 7293,
      "'m": 7294,
      "Ġfer": 7295,
      "Ġfix": 7296,
      "Ġitem": 7297,
      "Ġdealing": 7298,
      "Ġterror": 7299,
      "Ġunusual": 7300,
      "Ġtransp": 7301,
      "Ġdrain": 7302,
      "ĠSil": 7303,
      "mers": 7304,
      "ĠIran": 7305,
      "ĠFather": 7306,
      "Ġconcerning": 7307,
      "Ġimagine": 7308,
      "ĠâĨ": 7309,
      "Ġcash": 7310,
      "Ġoverw": 7311,
      "Ġsla": 7312,
      "outs": 7313,
      "Ġjump": 7314,
      "Ġerrors": 7315,
      "ĠCheck": 7316,
      "greg": 7317,
      "Ġdeeper": 7318,
      "Ġirrit": 7319,
      "oom": 7320,
      "ĠAmong": 7321,
      "roat": 7322,
      "ooking": 7323,
      "hyd": 7324,
      "aning": 7325,
      "ĠKorea": 7326,
      "Ġproceed": 7327,
      "Ġabnormal": 7328,
      "Ġtube": 7329,
      "Ġdecor": 7330,
      "Ġuncertain": 7331,
      "Ġinsert": 7332,
      "Ġinfluenced": 7333,
      "Ġmeth": 7334,
      "Ġvariables": 7335,
      "ĠFacebook": 7336,
      "Ġfalls": 7337,
      "Ġassigned": 7338,
      "rous": 7339,
      "Ġproved": 7340,
      "icted": 7341,
      "ude": 7342,
      "Ġarts": 7343,
      "Ġowner": 7344,
      "Ġmetabol": 7345,
      "Ġmaybe": 7346,
      "example": 7347,
      "89": 7348,
      "Today": 7349,
      "Ġlie": 7350,
      "Ġexcessive": 7351,
      "Ġgalax": 7352,
      "Ġthreats": 7353,
      "oli": 7354,
      "Ġpreventing": 7355,
      "ĠChristians": 7356,
      "fts": 7357,
      "Ġremind": 7358,
      "Ġkilomet": 7359,
      "74": 7360,
      "ĠTre": 7361,
      "itarian": 7362,
      "Ġ1994": 7363,
      "Ġacute": 7364,
      "ĠHeb": 7365,
      "ventions": 7366,
      "Ġbreeding": 7367,
      "Ġexclus": 7368,
      "Ġstatements": 7369,
      "osh": 7370,
      "ĠPo": 7371,
      "Ġpoem": 7372,
      "Ġobserve": 7373,
      "ĠJeff": 7374,
      "Ġdates": 7375,
      "Ġedition": 7376,
      "ĠAdv": 7377,
      "olving": 7378,
      "Ġfarming": 7379,
      "aired": 7380,
      "Ġteams": 7381,
      "Ġremoval": 7382,
      "Ġsession": 7383,
      "Ġepis": 7384,
      "Or": 7385,
      "aming": 7386,
      "Ġdischar": 7387,
      "Ġslavery": 7388,
      "ĠSym": 7389,
      "Ġye": 7390,
      "lishing": 7391,
      "ĠIslam": 7392,
      "Ġregulation": 7393,
      "Ġadvantages": 7394,
      "vard": 7395,
      "Ġpeak": 7396,
      "Ġsatisf": 7397,
      "zheimer": 7398,
      "eness": 7399,
      "ĠMoon": 7400,
      "Ġscore": 7401,
      "Ġdose": 7402,
      "istical": 7403,
      "Ġmarks": 7404,
      "ĠMuslim": 7405,
      "Ġstimul": 7406,
      "Ġrose": 7407,
      "ĠDespite": 7408,
      "produ": 7409,
      "Ġpush": 7410,
      "Ġdemands": 7411,
      "ĠTim": 7412,
      "amins": 7413,
      "Ġvarieties": 7414,
      "Ġpresents": 7415,
      "ĠMethod": 7416,
      "Ġproven": 7417,
      "ĠOpen": 7418,
      "ĠFour": 7419,
      "ĠYoung": 7420,
      "Comm": 7421,
      "ĠType": 7422,
      "erman": 7423,
      "ĠMS": 7424,
      "eut": 7425,
      "ĠWho": 7426,
      "ounce": 7427,
      "ĠStr": 7428,
      "ricts": 7429,
      "Ġbigger": 7430,
      "Ġanalys": 7431,
      "Ġlaid": 7432,
      "rance": 7433,
      "ĠMah": 7434,
      "orted": 7435,
      "Ġexamined": 7436,
      "Ġcommission": 7437,
      "Ġtranslation": 7438,
      "ĠFurthermore": 7439,
      "Ġgained": 7440,
      "lvan": 7441,
      "Ġtrigger": 7442,
      "Ġclar": 7443,
      "essions": 7444,
      "vin": 7445,
      "Ġspin": 7446,
      "Ġintent": 7447,
      "class": 7448,
      "oids": 7449,
      "amination": 7450,
      "ĠEp": 7451,
      "ograp": 7452,
      "ĠVer": 7453,
      "Ġcooking": 7454,
      "Ġuniversal": 7455,
      "rency": 7456,
      "Ġdifficulties": 7457,
      "onym": 7458,
      "Ġnewly": 7459,
      "ovascular": 7460,
      "Ġgut": 7461,
      "iana": 7462,
      "Ġouter": 7463,
      "Ġflour": 7464,
      "ĠAdministration": 7465,
      "itals": 7466,
      "Ġearliest": 7467,
      "ĠWall": 7468,
      "Ġwarning": 7469,
      "Ġfishing": 7470,
      "Ġbranches": 7471,
      "estion": 7472,
      "Ġmicrosc": 7473,
      "Ġguard": 7474,
      "unicip": 7475,
      "Ġisolated": 7476,
      "rays": 7477,
      "Ġsport": 7478,
      "oston": 7479,
      "Ġserves": 7480,
      "Ġflows": 7481,
      "Ġsuffered": 7482,
      "She": 7483,
      "Ġartist": 7484,
      "ĠUr": 7485,
      "Ġwindows": 7486,
      "Ġembry": 7487,
      "Ġfed": 7488,
      "thm": 7489,
      "ĠNon": 7490,
      "ĠFinally": 7491,
      "icate": 7492,
      "Ġsitting": 7493,
      "ĠCommunity": 7494,
      "Ġexperimental": 7495,
      "ĠCa": 7496,
      "Ġscar": 7497,
      "Ġconsume": 7498,
      "Ġ1950": 7499,
      "uality": 7500,
      "Ġcorner": 7501,
      "Ġplanets": 7502,
      "ĠAND": 7503,
      "ĠStar": 7504,
      "Ġabsence": 7505,
      "64": 7506,
      "rene": 7507,
      "Ġbranch": 7508,
      "encing": 7509,
      "Ġmodified": 7510,
      "ĠPlant": 7511,
      "Ġflower": 7512,
      "Ġinspired": 7513,
      "Ġcounsel": 7514,
      "Ġeliminate": 7515,
      "Ġangle": 7516,
      "pd": 7517,
      "Ġstores": 7518,
      "Ġconj": 7519,
      "Ġfocuses": 7520,
      "Ġstead": 7521,
      "Ġconference": 7522,
      "Per": 7523,
      "ĠIss": 7524,
      "incoln": 7525,
      "Ġscreening": 7526,
      "Ġhazard": 7527,
      "aph": 7528,
      "ioxid": 7529,
      "bra": 7530,
      "Ġfest": 7531,
      "Ġhappening": 7532,
      "omer": 7533,
      "Ġgro": 7534,
      "otton": 7535,
      "Ġparas": 7536,
      "Ġsenior": 7537,
      "Ġstuff": 7538,
      "ishop": 7539,
      "ilation": 7540,
      "People": 7541,
      "aws": 7542,
      "Ġscientist": 7543,
      "Ġinvestigation": 7544,
      "tles": 7545,
      "ĠEU": 7546,
      "agraph": 7547,
      "Ġinnovation": 7548,
      "ĠLearn": 7549,
      "ptions": 7550,
      "Ġamazing": 7551,
      "Ġhoney": 7552,
      "etary": 7553,
      "riend": 7554,
      "sylvan": 7555,
      "amine": 7556,
      "ĠResp": 7557,
      "ĠIndust": 7558,
      "Ġdriven": 7559,
      "Ġaccompan": 7560,
      "Comp": 7561,
      "sell": 7562,
      "Ġcham": 7563,
      "Ġdys": 7564,
      "Ġhealing": 7565,
      "Ġidentification": 7566,
      "ĠPrinc": 7567,
      "Ġencoun": 7568,
      "html": 7569,
      "Ġlymph": 7570,
      "Ġbreed": 7571,
      "bar": 7572,
      "Ġmosquit": 7573,
      "Ġpestic": 7574,
      "Ġpit": 7575,
      "Ġreward": 7576,
      "Ġintest": 7577,
      "ĠLead": 7578,
      "Ġadds": 7579,
      "Ġdetection": 7580,
      "Ġusual": 7581,
      "ĠProtection": 7582,
      "achers": 7583,
      "ĠThree": 7584,
      "Ġpeoples": 7585,
      "Ġroads": 7586,
      "ĠDoes": 7587,
      "Ġreveal": 7588,
      "def": 7589,
      "Ġenorm": 7590,
      "ruit": 7591,
      "Ġprinted": 7592,
      "ĠAM": 7593,
      "arents": 7594,
      "Ġvideos": 7595,
      "Ear": 7596,
      "ĠWorks": 7597,
      "elfare": 7598,
      "Ġcharacterized": 7599,
      "Ġmountains": 7600,
      "Ġcorrel": 7601,
      "Ġsettlement": 7602,
      "Ġmic": 7603,
      "Ġ1993": 7604,
      "action": 7605,
      "Ġcopper": 7606,
      "Ġsunlight": 7607,
      "AB": 7608,
      "ĠGr": 7609,
      "Ġswitch": 7610,
      "Ġasc": 7611,
      "Ġaccommod": 7612,
      "acco": 7613,
      "ĠRock": 7614,
      "Ġprominent": 7615,
      "eli": 7616,
      "Ġevolved": 7617,
      "Ġquarter": 7618,
      "chen": 7619,
      "Ġcab": 7620,
      "Ġassets": 7621,
      "atial": 7622,
      "Ġracial": 7623,
      "Ġgranted": 7624,
      "Ġcaught": 7625,
      "Ġtrends": 7626,
      "Ġrect": 7627,
      "ĠEst": 7628,
      "endment": 7629,
      "Ġdietary": 7630,
      "century": 7631,
      "Ġrational": 7632,
      "Ġadm": 7633,
      "HD": 7634,
      "Ġliteracy": 7635,
      "ulpt": 7636,
      "Ġalter": 7637,
      "Ġrecover": 7638,
      "ogs": 7639,
      "Ġfaced": 7640,
      "ima": 7641,
      "ultane": 7642,
      "Ġplayer": 7643,
      "Ġfinds": 7644,
      "Ġconcluded": 7645,
      ")|": 7646,
      "ĠLow": 7647,
      "ucky": 7648,
      "69": 7649,
      "Ġanywhere": 7650,
      "Ġrespiratory": 7651,
      "Ġinitially": 7652,
      "iat": 7653,
      "requ": 7654,
      "iture": 7655,
      "ĠAlzheimer": 7656,
      "Ġhydro": 7657,
      "amics": 7658,
      "Ġvariation": 7659,
      "abeth": 7660,
      "Ġlearners": 7661,
      "ĠAdditionally": 7662,
      "Ġexceed": 7663,
      "Ġpanels": 7664,
      "Ġmortality": 7665,
      "ĠIns": 7666,
      "night": 7667,
      "Ġexception": 7668,
      "Ġsubstantial": 7669,
      "Ġaged": 7670,
      "Ġcomfortable": 7671,
      "ansas": 7672,
      "atively": 7673,
      "bles": 7674,
      "ĠKar": 7675,
      "ĠSuper": 7676,
      "Ġconfig": 7677,
      "Ġrab": 7678,
      "ĠForce": 7679,
      "ĠSupreme": 7680,
      "Ġemphasis": 7681,
      "Ġunw": 7682,
      "Ġmyst": 7683,
      "coming": 7684,
      "lete": 7685,
      "ĠSund": 7686,
      "Ġdrought": 7687,
      "Ġmusical": 7688,
      "Ġturb": 7689,
      "03": 7690,
      "Ġprinting": 7691,
      "ĠNov": 7692,
      "Ġchannel": 7693,
      "angle": 7694,
      "ĠConservation": 7695,
      "Ġindigenous": 7696,
      "Ġvan": 7697,
      "ba": 7698,
      "Ø§": 7699,
      "Ġritual": 7700,
      "Ġpermission": 7701,
      "Ġwine": 7702,
      "Ġargue": 7703,
      "Ġalph": 7704,
      "Ġbomb": 7705,
      "Ġorbit": 7706,
      "Ġprovider": 7707,
      "ĠSwed": 7708,
      "AA": 7709,
      "esh": 7710,
      "ieval": 7711,
      "ĠEr": 7712,
      "Ġdecreased": 7713,
      "Ġtropical": 7714,
      "Ġ1992": 7715,
      "Ġgrid": 7716,
      "illa": 7717,
      "Ġbiom": 7718,
      "Ġrepresentation": 7719,
      "Ġsuperior": 7720,
      "Ġcleaning": 7721,
      "App": 7722,
      "Ġholes": 7723,
      "emia": 7724,
      "Ġfung": 7725,
      "Ġtreating": 7726,
      "ĠCross": 7727,
      "Ġdisabilities": 7728,
      "effect": 7729,
      "Ġconserv": 7730,
      "Ġconsideration": 7731,
      "igue": 7732,
      "Ġstrengthen": 7733,
      "rav": 7734,
      "Ġintensity": 7735,
      "print": 7736,
      "Ġfatty": 7737,
      "Ġsilver": 7738,
      "just": 7739,
      "soft": 7740,
      "Ġunion": 7741,
      "Ġvisited": 7742,
      "Ġdemocracy": 7743,
      "Ġcarbohyd": 7744,
      "Ġobservation": 7745,
      "asant": 7746,
      "allow": 7747,
      "ĠJul": 7748,
      "Ġdirected": 7749,
      "Ġ;": 7750,
      "Ġconqu": 7751,
      "Ġmeasuring": 7752,
      "Ġspectrum": 7753,
      "Ġimaging": 7754,
      "Ġinfant": 7755,
      "Ġoldest": 7756,
      "Ġexperiencing": 7757,
      "Ġinhabit": 7758,
      "Ġgiant": 7759,
      "Pre": 7760,
      "Ġantibiotics": 7761,
      "cyclopedia": 7762,
      "iary": 7763,
      "Ġcort": 7764,
      "har": 7765,
      "otype": 7766,
      "ustain": 7767,
      "ĠJo": 7768,
      "Ġgrows": 7769,
      "Ġvictim": 7770,
      "yer": 7771,
      "Ġstations": 7772,
      "ĠDC": 7773,
      "Ġchlor": 7774,
      "ercury": 7775,
      "Ġmothers": 7776,
      "ogenic": 7777,
      "Ġcomplications": 7778,
      "Ġampl": 7779,
      "Ġviewed": 7780,
      "ĠNever": 7781,
      "sylvania": 7782,
      "Ġovercome": 7783,
      "Ġacres": 7784,
      "Ġobjectives": 7785,
      "haust": 7786,
      "Ġsales": 7787,
      "ĠChapter": 7788,
      "Ġsplit": 7789,
      "Ġcontribution": 7790,
      "Ġautism": 7791,
      "Ġprofit": 7792,
      "ĠTop": 7793,
      "riz": 7794,
      "09": 7795,
      "Ġreaching": 7796,
      "Ġprocessed": 7797,
      "Ġopposition": 7798,
      "Ġdiameter": 7799,
      "Ġphrase": 7800,
      "ĠCurrent": 7801,
      "ĠMichigan": 7802,
      "Ġformula": 7803,
      "May": 7804,
      "athered": 7805,
      "ĠAmaz": 7806,
      "Ġcorrectly": 7807,
      "ĠSir": 7808,
      "iva": 7809,
      "ĠAuthor": 7810,
      "real": 7811,
      "ĠLiter": 7812,
      "?\"": 7813,
      "otal": 7814,
      "irth": 7815,
      "Ġchap": 7816,
      "Get": 7817,
      "enger": 7818,
      "Ġworst": 7819,
      "Ġjur": 7820,
      "Ġ38": 7821,
      "quir": 7822,
      "Ġplot": 7823,
      "Ġforming": 7824,
      "ĠPot": 7825,
      "ĠNote": 7826,
      "urolog": 7827,
      "asts": 7828,
      "Ġoccurring": 7829,
      "ĠTable": 7830,
      "ĠSign": 7831,
      "irms": 7832,
      "Ġdetected": 7833,
      "Ġwrites": 7834,
      "Ġcommunications": 7835,
      "Ġfra": 7836,
      "Ġarray": 7837,
      "Ġton": 7838,
      "Ġabilities": 7839,
      "Ġsubt": 7840,
      "Ġcattle": 7841,
      "Ġheavily": 7842,
      "56": 7843,
      "Ed": 7844,
      "ĠDou": 7845,
      "Ġremed": 7846,
      "Ġslaves": 7847,
      "Ġprogramme": 7848,
      "anger": 7849,
      "ĠIV": 7850,
      "ĠOnline": 7851,
      "Ġordinary": 7852,
      "otherapy": 7853,
      "ĠMinister": 7854,
      "iner": 7855,
      "Ġwisdom": 7856,
      "Ġhence": 7857,
      "Ġcalling": 7858,
      "Ġceremon": 7859,
      "Car": 7860,
      "Ġdecay": 7861,
      "Ġheads": 7862,
      "Ġstability": 7863,
      "isted": 7864,
      "Ġuniform": 7865,
      "Ġvocabulary": 7866,
      "Ġadolesc": 7867,
      "Ã¢": 7868,
      "Ġregardless": 7869,
      "ĠSimilar": 7870,
      "itory": 7871,
      "ura": 7872,
      "igate": 7873,
      "Ġdisrupt": 7874,
      "Ġlistening": 7875,
      "Ġaddressed": 7876,
      "ĠFigure": 7877,
      "Ġeditor": 7878,
      "ĠPrevention": 7879,
      "ĠCambridge": 7880,
      "Col": 7881,
      "Ġpurs": 7882,
      "Ġautomatically": 7883,
      "ailable": 7884,
      "Ġbless": 7885,
      "sen": 7886,
      "ĠCP": 7887,
      "Ġhormone": 7888,
      "Pr": 7889,
      "Ġextend": 7890,
      "Ġcharged": 7891,
      "',": 7892,
      "mod": 7893,
      "Ġcontributed": 7894,
      "Ġweakness": 7895,
      "Ġelder": 7896,
      "Ġsupplements": 7897,
      "rection": 7898,
      "ĠEdward": 7899,
      "Ġethical": 7900,
      "aya": 7901,
      "ells": 7902,
      "Ġpolar": 7903,
      "Ġinsight": 7904,
      "Ġperception": 7905,
      "rolled": 7906,
      "Ġidentifying": 7907,
      "Ġ×": 7908,
      "Ġclient": 7909,
      "Ġgrain": 7910,
      "Ġconcentrations": 7911,
      "raham": 7912,
      "Ġalive": 7913,
      "una": 7914,
      "Ġschedule": 7915,
      "oga": 7916,
      "angered": 7917,
      "Ġprotecting": 7918,
      "ocolate": 7919,
      "Ġhouseholds": 7920,
      "Ġworship": 7921,
      "icing": 7922,
      "Ġecological": 7923,
      "Ġnutrient": 7924,
      "stant": 7925,
      "ĠMult": 7926,
      "forest": 7927,
      "Ġpin": 7928,
      "ĠLo": 7929,
      "Ġauthent": 7930,
      "Ġproviders": 7931,
      "Ġcommitment": 7932,
      "door": 7933,
      "ĠCOVID": 7934,
      "04": 7935,
      "Ġthereby": 7936,
      "Ġlogic": 7937,
      "ĠJohnson": 7938,
      "ĠEngineering": 7939,
      "ĠSand": 7940,
      "neys": 7941,
      "08": 7942,
      "Last": 7943,
      "Ġ)": 7944,
      "Ġrelie": 7945,
      "Ġmoderate": 7946,
      "Ġaudio": 7947,
      "ĠDutch": 7948,
      "Ġillegal": 7949,
      "Ġpointed": 7950,
      "Ġcovering": 7951,
      "Ġdynamic": 7952,
      "plete": 7953,
      "Ġregarded": 7954,
      "Ġmanufacturers": 7955,
      "Ġlaser": 7956,
      "ami": 7957,
      "ĠFire": 7958,
      "ptic": 7959,
      "ENT": 7960,
      "Ã¤": 7961,
      "Ġconce": 7962,
      "acent": 7963,
      "quar": 7964,
      "Ġnice": 7965,
      "ĠChristianity": 7966,
      "Ġgirl": 7967,
      "Ġinteractive": 7968,
      "Ġsup": 7969,
      "Ġtaxes": 7970,
      "98": 7971,
      "ostic": 7972,
      "Ġwheel": 7973,
      "Ġinterface": 7974,
      "Ġcourts": 7975,
      "Ġeducators": 7976,
      "Part": 7977,
      "izabeth": 7978,
      "Ġ33": 7979,
      "Ġengineers": 7980,
      "Ġadvent": 7981,
      "Ġmeals": 7982,
      "Ġhardware": 7983,
      "Ġchemistry": 7984,
      "Ġattach": 7985,
      "Ġflash": 7986,
      "Ġcoverage": 7987,
      "ĠLight": 7988,
      "pling": 7989,
      "Ġclub": 7990,
      "eping": 7991,
      "Ġexpanded": 7992,
      "ĠPolicy": 7993,
      "Ġles": 7994,
      "ildren": 7995,
      "ĠHebrew": 7996,
      "Ġseat": 7997,
      "Ġinnovative": 7998,
      "Ġtong": 7999,
      "Ġglac": 8000,
      "Ġflying": 8001,
      "Ġperm": 8002,
      "Ġresearcher": 8003,
      "Ġthreatened": 8004,
      "Ġinitiative": 8005,
      "CR": 8006,
      "EF": 8007,
      "BT": 8008,
      "uset": 8009,
      "brid": 8010,
      "Ġoverwhel": 8011,
      "Ġprovince": 8012,
      "Ġpreced": 8013,
      "Ġelsewhere": 8014,
      "Ġreporting": 8015,
      "ĠMath": 8016,
      "Ġ55": 8017,
      "Ġcopyright": 8018,
      "ĠSafety": 8019,
      "Ġprotective": 8020,
      ".).": 8021,
      "ĠRoad": 8022,
      "rot": 8023,
      "ĠUt": 8024,
      "ĠLincoln": 8025,
      "68": 8026,
      "Ġmir": 8027,
      "Ġmixture": 8028,
      "Ġhosp": 8029,
      "ette": 8030,
      "About": 8031,
      "Hist": 8032,
      "mm": 8033,
      "Ġhidden": 8034,
      "Ġmathematical": 8035,
      "Ġboat": 8036,
      "ĠÂ£": 8037,
      "Ġcooling": 8038,
      "urches": 8039,
      "ĠHor": 8040,
      "Ġplain": 8041,
      "ĠBoston": 8042,
      "Ġlens": 8043,
      "bean": 8044,
      "iations": 8045,
      "Ġbiodiversity": 8046,
      "Ġquiet": 8047,
      "holders": 8048,
      "Ġbelieves": 8049,
      "adel": 8050,
      "Ġcompound": 8051,
      "Ġdegrad": 8052,
      "Ġshoot": 8053,
      "ao": 8054,
      "Ġlights": 8055,
      "Ġupdated": 8056,
      "hus": 8057,
      "ĠGeorgia": 8058,
      "ĠGulf": 8059,
      "Ġcomprom": 8060,
      "Ġfalling": 8061,
      "Ġfunctioning": 8062,
      "Ġcontainer": 8063,
      "Ġantioxid": 8064,
      "Ġattitude": 8065,
      "Ġargued": 8066,
      "Ġdescript": 8067,
      "Ġbehavioral": 8068,
      "Ġov": 8069,
      "ĠSet": 8070,
      "Ġagent": 8071,
      "ĠImp": 8072,
      "Ġversions": 8073,
      "ĠPolit": 8074,
      "Ġran": 8075,
      "achuset": 8076,
      "ĠHeart": 8077,
      "Ġaffecting": 8078,
      "ĠQueen": 8079,
      "ĠPennsylvania": 8080,
      "Ġorders": 8081,
      "ĠConference": 8082,
      "ĠUnfortunately": 8083,
      "Ġimprovements": 8084,
      "Ġstopped": 8085,
      "achusetts": 8086,
      "urning": 8087,
      "Ġ48": 8088,
      "Ġseparated": 8089,
      "Ġbrows": 8090,
      "Ġcharacteristic": 8091,
      "Also": 8092,
      "ĠStart": 8093,
      "Ġslave": 8094,
      "Ġswit": 8095,
      "ĠConvention": 8096,
      "icy": 8097,
      "ĠOhio": 8098,
      "ĠArctic": 8099,
      "Ġboundaries": 8100,
      "Ġtribes": 8101,
      "bec": 8102,
      "Ġ^": 8103,
      "Ġenables": 8104,
      "Ġ1930": 8105,
      "Ġburied": 8106,
      "Ġsizes": 8107,
      "Ġtick": 8108,
      "Ġsuscept": 8109,
      "Ġstake": 8110,
      "Ġven": 8111,
      "Ġexplicit": 8112,
      "HS": 8113,
      "Ġfaces": 8114,
      "ĠFrancisco": 8115,
      "02": 8116,
      "iments": 8117,
      "Ġlosses": 8118,
      "Ġspr": 8119,
      "ĠCho": 8120,
      "Ġacquired": 8121,
      "lines": 8122,
      "Ġincident": 8123,
      "archy": 8124,
      "icular": 8125,
      "Ġwheat": 8126,
      "ĠIT": 8127,
      "cking": 8128,
      "ega": 8129,
      "Ġmigration": 8130,
      "ĠTom": 8131,
      "roud": 8132,
      "Com": 8133,
      "istant": 8134,
      "Ġdesert": 8135,
      "Ġtechnological": 8136,
      "Ġbag": 8137,
      "ĠCorn": 8138,
      "ĠPass": 8139,
      "agen": 8140,
      "Ġmanaging": 8141,
      "Ġvel": 8142,
      "ĠOtt": 8143,
      "ĠAssess": 8144,
      "Ġstreets": 8145,
      "ĠLy": 8146,
      "ĠOl": 8147,
      "Ġspoken": 8148,
      "amples": 8149,
      "ontal": 8150,
      "John": 8151,
      "iti": 8152,
      "aren": 8153,
      "ibraries": 8154,
      "Ġgases": 8155,
      "ĠHospital": 8156,
      "Ġpreserve": 8157,
      "Ġexciting": 8158,
      "uting": 8159,
      "ĠWay": 8160,
      "ĠJustice": 8161,
      "Ġhunting": 8162,
      "Ġfellow": 8163,
      "Ġsimultane": 8164,
      "Ġowned": 8165,
      "Ġhumanity": 8166,
      "ĠHand": 8167,
      "Ġtables": 8168,
      "Ġfilter": 8169,
      "%,": 8170,
      "zym": 8171,
      "Ġtrauma": 8172,
      "],": 8173,
      "Ġvegetation": 8174,
      "rical": 8175,
      "Ġfur": 8176,
      "Ġappointed": 8177,
      "ifice": 8178,
      "erty": 8179,
      "Ġharder": 8180,
      "ugg": 8181,
      "lymp": 8182,
      "Ġmine": 8183,
      "Ġgrains": 8184,
      "omatic": 8185,
      "Ġcreatures": 8186,
      "Ġthermal": 8187,
      "Ġembra": 8188,
      "ĠDivision": 8189,
      "Ġfires": 8190,
      "Ġdance": 8191,
      "Ġaimed": 8192,
      "Ġflexible": 8193,
      "Ġrac": 8194,
      "eor": 8195,
      "Ġinequ": 8196,
      "Ġmarketing": 8197,
      "Ġroyal": 8198,
      "Ġinterior": 8199,
      "eting": 8200,
      "Ġsurge": 8201,
      "Ġ37": 8202,
      "Ġliterary": 8203,
      "Ġprobability": 8204,
      "Ġdramatic": 8205,
      "ĠBattle": 8206,
      "Ġsensitivity": 8207,
      "ĠWithout": 8208,
      "ĠCard": 8209,
      "Ġgrounds": 8210,
      "Ġparad": 8211,
      "ĠMedia": 8212,
      "Ġfarms": 8213,
      "Ġcommittee": 8214,
      "asma": 8215,
      "Ġintroduce": 8216,
      "ĠScotland": 8217,
      "Ġdisability": 8218,
      "Ġsculpt": 8219,
      "Ġduty": 8220,
      "gon": 8221,
      "aka": 8222,
      "Ġ1991": 8223,
      "Ġemerging": 8224,
      "Ġeru": 8225,
      "Ġemotion": 8226,
      "Ġestablishment": 8227,
      "Ġnarrative": 8228,
      "Ġmouse": 8229,
      "Ġconsumed": 8230,
      "iop": 8231,
      "Ġorb": 8232,
      "Ġarguments": 8233,
      "Ġentertain": 8234,
      "utation": 8235,
      "ĠLess": 8236,
      "Ġbutton": 8237,
      "Ġsched": 8238,
      "Ġcyber": 8239,
      "ĠBooks": 8240,
      "Ġfo": 8241,
      "Ġsubstit": 8242,
      "Ġperceived": 8243,
      "Ġfats": 8244,
      "alities": 8245,
      "ĠRh": 8246,
      "ĠFar": 8247,
      "ourse": 8248,
      "Ġ2021": 8249,
      "Ġevening": 8250,
      "ĠTurk": 8251,
      "Ġvaccines": 8252,
      "uten": 8253,
      "Ġstrain": 8254,
      "Ġdriver": 8255,
      "Ġastronom": 8256,
      "Ġtor": 8257,
      "ecess": 8258,
      "Ġwaiting": 8259,
      "zer": 8260,
      "ranean": 8261,
      "Art": 8262,
      "Ġpursu": 8263,
      "Ġlists": 8264,
      "Ġtempor": 8265,
      "Ġexecutive": 8266,
      "ĠPalest": 8267,
      "Ġexhaust": 8268,
      "ricted": 8269,
      "ographical": 8270,
      "ema": 8271,
      "ĠReading": 8272,
      "HA": 8273,
      "Ġexped": 8274,
      "Ġavailability": 8275,
      "zyme": 8276,
      "Ġlip": 8277,
      "Ġadverse": 8278,
      "ĠHead": 8279,
      "Ġheritage": 8280,
      "Ġtumor": 8281,
      "Ġempty": 8282,
      "elve": 8283,
      "adow": 8284,
      "Ġresid": 8285,
      "Ġvitamins": 8286,
      "Ġkilling": 8287,
      "Ġassumed": 8288,
      "ket": 8289,
      "Ġbeat": 8290,
      "ĠLos": 8291,
      "Ġparagraph": 8292,
      "ĠLee": 8293,
      "Ġhabitats": 8294,
      "Ġanalyze": 8295,
      "ĠSurvey": 8296,
      "Ġwonderful": 8297,
      "Ġparameters": 8298,
      "rize": 8299,
      "EE": 8300,
      "apor": 8301,
      "ĠColl": 8302,
      "Co": 8303,
      "jo": 8304,
      "Ġcollective": 8305,
      "Ġequation": 8306,
      "IF": 8307,
      "Ð°": 8308,
      "ĠAL": 8309,
      "CL": 8310,
      "ĠTry": 8311,
      "Ġnewspaper": 8312,
      "usalem": 8313,
      "ĠBusiness": 8314,
      "Ġsentences": 8315,
      "ĠBu": 8316,
      "ĠFind": 8317,
      "ĠPlay": 8318,
      "ĠParliament": 8319,
      "Ġdense": 8320,
      "Ġphysically": 8321,
      "Ġbare": 8322,
      "Ġspray": 8323,
      "ĠMur": 8324,
      "Ġinterventions": 8325,
      "Ġsocieties": 8326,
      "Ð¾": 8327,
      "ĠDO": 8328,
      "ĠLittle": 8329,
      "Ġheaven": 8330,
      "Ġpriority": 8331,
      "Ġom": 8332,
      "Ġdism": 8333,
      "Ġenormous": 8334,
      "ĠOper": 8335,
      "Ġadvis": 8336,
      "Ġvariations": 8337,
      "ĠTestament": 8338,
      "Ġpersonality": 8339,
      "Ġstrike": 8340,
      "ĠIdent": 8341,
      "Ġphotographs": 8342,
      "imp": 8343,
      "ĠSanta": 8344,
      ")||": 8345,
      "Ġlungs": 8346,
      "ĠMassachusetts": 8347,
      "Ġachievement": 8348,
      "ĠHim": 8349,
      "Ġpand": 8350,
      "Ġdeeply": 8351,
      ".'": 8352,
      "uan": 8353,
      "thon": 8354,
      "text": 8355,
      "Ġprofile": 8356,
      "ipher": 8357,
      "Ġdistricts": 8358,
      "words": 8359,
      "Ġdimens": 8360,
      "Ġreasonable": 8361,
      "opher": 8362,
      "Ġcancers": 8363,
      "ensed": 8364,
      "gener": 8365,
      "berry": 8366,
      "Ġengaging": 8367,
      "Ġherb": 8368,
      "ĠPortug": 8369,
      "ĠAnalysis": 8370,
      "Ġchances": 8371,
      "http": 8372,
      "ifted": 8373,
      "Ġresc": 8374,
      "Ġkeeps": 8375,
      "ĠModel": 8376,
      "Ġcorresponding": 8377,
      "Under": 8378,
      "oul": 8379,
      "Ġmyself": 8380,
      "Ġexpectations": 8381,
      "ĠSystems": 8382,
      "63": 8383,
      "rin": 8384,
      "was": 8385,
      "Ġplanting": 8386,
      "atal": 8387,
      "uscript": 8388,
      "Ġnotion": 8389,
      "Ġappeal": 8390,
      "Ġwider": 8391,
      "Sim": 8392,
      "Step": 8393,
      "ouds": 8394,
      "Ġdim": 8395,
      "apes": 8396,
      "Ġentit": 8397,
      "wan": 8398,
      "borne": 8399,
      "ĠColorado": 8400,
      "Ġfought": 8401,
      "Ġraising": 8402,
      "Ġsettled": 8403,
      "Ġuniversities": 8404,
      "Ġneutral": 8405,
      "Ġexploration": 8406,
      "Ġsustainability": 8407,
      "59": 8408,
      "ĠPur": 8409,
      "ĠModern": 8410,
      "ĠWal": 8411,
      "Ġfisher": 8412,
      "Ġlowest": 8413,
      "Ġperforming": 8414,
      "Cons": 8415,
      "Ġstones": 8416,
      "Ġofficer": 8417,
      "kind": 8418,
      "ĠCirc": 8419,
      "through": 8420,
      "Ġmanifest": 8421,
      "CP": 8422,
      "Ġassert": 8423,
      "Ġtemporary": 8424,
      "Ġpromoting": 8425,
      "Ġcure": 8426,
      "Ġchair": 8427,
      "Ġsensors": 8428,
      "ĠSpirit": 8429,
      "ĠSenate": 8430,
      "Ġfuels": 8431,
      "dr": 8432,
      "olt": 8433,
      "agan": 8434,
      "Ġcardiovascular": 8435,
      "Ġsad": 8436,
      "Ġshore": 8437,
      "Ġcas": 8438,
      "ician": 8439,
      "gence": 8440,
      "Ġfocusing": 8441,
      "Ġpsychology": 8442,
      "DS": 8443,
      "ĠSpring": 8444,
      "ali": 8445,
      "Ġfing": 8446,
      "Ġbeans": 8447,
      "Ġconclus": 8448,
      "Ġlabour": 8449,
      "ols": 8450,
      "Ġ1920": 8451,
      "Ġlifetime": 8452,
      "Ġkingdom": 8453,
      "ĠOlymp": 8454,
      "Where": 8455,
      "kl": 8456,
      "aints": 8457,
      "Ġrequirement": 8458,
      "Ġconsciousness": 8459,
      "Ġmanager": 8460,
      "GE": 8461,
      "ĠLast": 8462,
      "Ġextension": 8463,
      "ĠPhot": 8464,
      "Ġquantity": 8465,
      "ceans": 8466,
      "mentia": 8467,
      "Ġcoat": 8468,
      "Ġ95": 8469,
      "Ġpainful": 8470,
      "Ġvertical": 8471,
      "Ġcustomer": 8472,
      "ĠEconomic": 8473,
      "ĠAsse": 8474,
      "Ġfatigue": 8475,
      "ĠFact": 8476,
      "Ġentering": 8477,
      "Ġminds": 8478,
      "ĠEgyptian": 8479,
      "Ġtens": 8480,
      "Ġlosing": 8481,
      "Ġcalculated": 8482,
      "Ġviolent": 8483,
      "Ġcontributions": 8484,
      "Ġdirections": 8485,
      "Ġpreferred": 8486,
      "Just": 8487,
      "disc": 8488,
      "world": 8489,
      "ĠCub": 8490,
      "Ġsaved": 8491,
      "ico": 8492,
      "asm": 8493,
      "ogy": 8494,
      "ĠAgain": 8495,
      "Ġinvestigate": 8496,
      "MP": 8497,
      "Ġscores": 8498,
      "Ġequality": 8499,
      "TP": 8500,
      "hea": 8501,
      "ĠPak": 8502,
      "pled": 8503,
      "Ġtransmit": 8504,
      "Ġensuring": 8505,
      "ĠPhilipp": 8506,
      "Ġecosystems": 8507,
      "endar": 8508,
      "ospel": 8509,
      "thew": 8510,
      "ĠLaboratory": 8511,
      "EA": 8512,
      "lims": 8513,
      "Ġengagement": 8514,
      "ĠTO": 8515,
      "ĠIndeed": 8516,
      "Ġexhibit": 8517,
      "Ġearthquake": 8518,
      "Ġul": 8519,
      "ĠClick": 8520,
      "anted": 8521,
      "mann": 8522,
      "'.": 8523,
      ":||": 8524,
      "Ġguess": 8525,
      "Ġbegun": 8526,
      "ĠHawai": 8527,
      "Ġhaven": 8528,
      "Ġpromise": 8529,
      "Ġadapted": 8530,
      "aret": 8531,
      "ĠVietnam": 8532,
      "bel": 8533,
      "Ġfinger": 8534,
      "ashes": 8535,
      "ĠSection": 8536,
      "Ġsurg": 8537,
      "ependent": 8538,
      "58": 8539,
      "Ġmg": 8540,
      "Ġhall": 8541,
      "Ġdeficiency": 8542,
      "Ġvirtually": 8543,
      "!âĢĿ": 8544,
      "ĠObs": 8545,
      "07": 8546,
      "Ġstyles": 8547,
      "Ġactively": 8548,
      "Ġmarg": 8549,
      "Ġgeomet": 8550,
      "ĠMess": 8551,
      "ĠBa": 8552,
      "Ġclassified": 8553,
      "Ġmetals": 8554,
      "Ġasp": 8555,
      "Ġaccord": 8556,
      "Using": 8557,
      "idal": 8558,
      "Ġpropag": 8559,
      "Eng": 8560,
      "Ġcord": 8561,
      "rix": 8562,
      "Ġacting": 8563,
      "Ġmovie": 8564,
      "Ġgravity": 8565,
      "67": 8566,
      "Ġaddiction": 8567,
      "ĠPoint": 8568,
      "2010": 8569,
      "Ġexisted": 8570,
      "ipe": 8571,
      "ĠIslamic": 8572,
      "ĠWildlife": 8573,
      "foot": 8574,
      "ailed": 8575,
      "Ġabstract": 8576,
      "Ġsummary": 8577,
      "Ġevident": 8578,
      "Ġ39": 8579,
      "ĠElizabeth": 8580,
      "ĠHarvard": 8581,
      "play": 8582,
      "Ġbacterial": 8583,
      "ĠAgriculture": 8584,
      "Ġtip": 8585,
      "advant": 8586,
      "ĠIslands": 8587,
      "Ġreturns": 8588,
      "Ġtargeted": 8589,
      "gien": 8590,
      "green": 8591,
      "Ġease": 8592,
      "Ġsevent": 8593,
      "Ġtransmitted": 8594,
      "Ġshaped": 8595,
      "Ġaging": 8596,
      "Ġcapabilities": 8597,
      "Ġverb": 8598,
      "Ġurine": 8599,
      "Ġtelling": 8600,
      "Ġscheme": 8601,
      "Ġwouldn": 8602,
      "Ġstrategic": 8603,
      "Ġfeels": 8604,
      "icking": 8605,
      "Ġcomputing": 8606,
      "Ġirrig": 8607,
      "operative": 8608,
      "ĠAlexander": 8609,
      "Ġremarkable": 8610,
      "Ġdetermining": 8611,
      "onal": 8612,
      "ushing": 8613,
      "Ġclassical": 8614,
      "Ġconstra": 8615,
      "Ġversus": 8616,
      "ĠJerusalem": 8617,
      "Ġ120": 8618,
      "Ġattribut": 8619,
      "you": 8620,
      "Ġaccompanied": 8621,
      "Are": 8622,
      "orig": 8623,
      "Ġcelebrated": 8624,
      "Ġgods": 8625,
      "Ġresistant": 8626,
      "Ġconvey": 8627,
      "ĠLin": 8628,
      "isd": 8629,
      "Ġsymbols": 8630,
      "uum": 8631,
      "Ġpassion": 8632,
      "Ġloose": 8633,
      "Ġvictory": 8634,
      "Ġcub": 8635,
      "Ġwage": 8636,
      "Ġanger": 8637,
      "Ġranging": 8638,
      "ĠNavy": 8639,
      "Ġpion": 8640,
      "ĠSaint": 8641,
      "Ġintention": 8642,
      "Ġrestoration": 8643,
      "Ġwatching": 8644,
      "Ġcontinuing": 8645,
      "ĠAvoid": 8646,
      "asy": 8647,
      "ila": 8648,
      "Ġspinal": 8649,
      "Ġlock": 8650,
      "fast": 8651,
      "Ġtab": 8652,
      "ĠpH": 8653,
      "Ġoxid": 8654,
      "Ġenterpr": 8655,
      "Ġdominant": 8656,
      "made": 8657,
      "ĠConnect": 8658,
      "Ġsacred": 8659,
      "umer": 8660,
      "Ġresil": 8661,
      "Ġremoving": 8662,
      "Ġwithdraw": 8663,
      "Ġproductivity": 8664,
      "Ġmedicines": 8665,
      "ĠPage": 8666,
      "Ne": 8667,
      "box": 8668,
      "ĠCr": 8669,
      "ĠStan": 8670,
      "Ġfrust": 8671,
      "Ġstood": 8672,
      "ivest": 8673,
      "Ġcouncil": 8674,
      "Ġwebsites": 8675,
      "53": 8676,
      "Ġreverse": 8677,
      "Ġscope": 8678,
      "Ġoccas": 8679,
      "Ġapplying": 8680,
      "Ġbatteries": 8681,
      "Ġrobot": 8682,
      "Â®": 8683,
      "ĠCT": 8684,
      "Ġreferences": 8685,
      "ĠKey": 8686,
      "Ġnutritional": 8687,
      "Ġcow": 8688,
      "onday": 8689,
      "hire": 8690,
      "ĠMoses": 8691,
      "Ġdefinitely": 8692,
      "Ġsodium": 8693,
      "EG": 8694,
      "Ġwars": 8695,
      "Ġmunicip": 8696,
      "Ġintegration": 8697,
      "Ġregime": 8698,
      "Ġobst": 8699,
      "Who": 8700,
      "Ġquantum": 8701,
      "amps": 8702,
      "Ġthread": 8703,
      "rue": 8704,
      "Ġdifferently": 8705,
      "Ġgathered": 8706,
      "ĠSolar": 8707,
      "Ġpersonnel": 8708,
      "iterranean": 8709,
      "Ġdiscussions": 8710,
      "ati": 8711,
      "2012": 8712,
      "eutic": 8713,
      "MA": 8714,
      "RC": 8715,
      "Ġears": 8716,
      "Ġprescribed": 8717,
      "Ġduration": 8718,
      "chain": 8719,
      "ifier": 8720,
      "ĠRight": 8721,
      "Ġdiffer": 8722,
      "Ġtransc": 8723,
      "ĠOrig": 8724,
      "ĠAmazon": 8725,
      "Ġ34": 8726,
      "Ðµ": 8727,
      "plo": 8728,
      "Ġseriously": 8729,
      "Ġexpertise": 8730,
      "Like": 8731,
      "Ġtelesc": 8732,
      "Ġspoke": 8733,
      "feed": 8734,
      "Ġgent": 8735,
      "Ġsees": 8736,
      "Ġfinish": 8737,
      "Ġcraft": 8738,
      "ĠDrug": 8739,
      "Ġcurve": 8740,
      "fe": 8741,
      "ĠSS": 8742,
      "ĠMax": 8743,
      "Ġcolonies": 8744,
      "Ġhypothesis": 8745,
      "Ġliterally": 8746,
      "Ġtack": 8747,
      "erts": 8748,
      "Ġcompass": 8749,
      "Ġholiday": 8750,
      "bell": 8751,
      "Sm": 8752,
      "unc": 8753,
      "Ġtone": 8754,
      "ĠImm": 8755,
      "Ġdrivers": 8756,
      "Each": 8757,
      "Ġdress": 8758,
      "ĠDigital": 8759,
      "dep": 8760,
      "ĠEPA": 8761,
      "actions": 8762,
      "Ġtraits": 8763,
      "Ġdict": 8764,
      "Ġsafely": 8765,
      "Ġfriendly": 8766,
      "Ġbee": 8767,
      "eries": 8768,
      "Before": 8769,
      "iger": 8770,
      "ĠBang": 8771,
      "Ġcolonial": 8772,
      "Ġwelfare": 8773,
      "ĠDown": 8774,
      "hemistry": 8775,
      "mented": 8776,
      "ĠGar": 8777,
      "Ġrecre": 8778,
      "Ġreaches": 8779,
      "Ġgift": 8780,
      "Ġestate": 8781,
      "ĠBuddh": 8782,
      "Ġmembrane": 8783,
      "reens": 8784,
      "ĠBiology": 8785,
      "Ġcotton": 8786,
      "cho": 8787,
      "ĠBack": 8788,
      "Ġcann": 8789,
      "2013": 8790,
      "Ġrepresentative": 8791,
      "Ġbarrier": 8792,
      "Ġadopt": 8793,
      "zo": 8794,
      "Ġteens": 8795,
      "Ġsensor": 8796,
      "Ġ1940": 8797,
      "Ġconverted": 8798,
      "'d": 8799,
      "Ġchose": 8800,
      "Ġfacilitate": 8801,
      "NS": 8802,
      "awa": 8803,
      "Ġinvolvement": 8804,
      "havior": 8805,
      "Ġsoph": 8806,
      "Ġbeach": 8807,
      "Ref": 8808,
      "run": 8809,
      "ĠAbraham": 8810,
      "Ġlogical": 8811,
      "Ġopinions": 8812,
      "Ġsessions": 8813,
      "Ġcompost": 8814,
      "Ġarmed": 8815,
      "claim": 8816,
      "Ġprivile": 8817,
      "Ġpy": 8818,
      "Ġunn": 8819,
      "Ġdropped": 8820,
      "Ġspots": 8821,
      "Ġsongs": 8822,
      "Ġtob": 8823,
      "aware": 8824,
      "Ġlinear": 8825,
      "press": 8826,
      "mentation": 8827,
      "Ġclock": 8828,
      "Ġdevelops": 8829,
      "Ġdrinks": 8830,
      "ĠChief": 8831,
      "agnetic": 8832,
      "ĠMinistry": 8833,
      "onents": 8834,
      "Ġindirect": 8835,
      "2011": 8836,
      "Ġbreaking": 8837,
      "Ġanticip": 8838,
      "Ġdevast": 8839,
      "Ġapparently": 8840,
      "Ġtact": 8841,
      "Ġpoetry": 8842,
      "Despite": 8843,
      "oline": 8844,
      "Ġfaculty": 8845,
      "Ġinvasion": 8846,
      "ĠSunday": 8847,
      "Ġatoms": 8848,
      "ĠFred": 8849,
      "adelph": 8850,
      "Ġdairy": 8851,
      "Ġparticle": 8852,
      "61": 8853,
      "pre": 8854,
      "ĠCE": 8855,
      "Ġrecording": 8856,
      "awn": 8857,
      "Ġoccupied": 8858,
      "Ġtrace": 8859,
      "Ġspan": 8860,
      "Ġ1989": 8861,
      "lights": 8862,
      "Ġweigh": 8863,
      "specific": 8864,
      "this": 8865,
      "ĠVan": 8866,
      "Ġrecycling": 8867,
      "amil": 8868,
      "Ġvot": 8869,
      "Ġcomplexity": 8870,
      "Ġfunded": 8871,
      "Ġjoy": 8872,
      "issance": 8873,
      "Ġdefault": 8874,
      "Ġclay": 8875,
      "Ġdevelopments": 8876,
      "Ġwat": 8877,
      "Ġidentical": 8878,
      "iblical": 8879,
      "\")": 8880,
      "Ġdeploy": 8881,
      "enda": 8882,
      "Ġutility": 8883,
      "Ġaggressive": 8884,
      "ĠWikipedia": 8885,
      "Ġclients": 8886,
      "Ġchromos": 8887,
      "Ġchocolate": 8888,
      "ĠLater": 8889,
      "ĠAsk": 8890,
      "inois": 8891,
      "rh": 8892,
      "icts": 8893,
      "Ġpermit": 8894,
      "ĠIncre": 8895,
      "Ġcolony": 8896,
      "ĠSecretary": 8897,
      "zymes": 8898,
      "Ġdies": 8899,
      "Ġvibr": 8900,
      "Ġnoticed": 8901,
      "Ġcooperation": 8902,
      "ĠBlue": 8903,
      "Ġprivacy": 8904,
      "Ġbleeding": 8905,
      "Ġmature": 8906,
      "Ġthroat": 8907,
      "Ġconvert": 8908,
      "Ġzones": 8909,
      "ĠMusic": 8910,
      "ivestock": 8911,
      "ologically": 8912,
      "Ġrealized": 8913,
      "Ġplanted": 8914,
      "ĠImpro": 8915,
      "Ġfet": 8916,
      "Ġtransferred": 8917,
      "Ġpill": 8918,
      "Ġpeer": 8919,
      "Ġinfants": 8920,
      "Ġclassic": 8921,
      "Ġsleeping": 8922,
      "Ġvegetable": 8923,
      "Sec": 8924,
      "ĠOs": 8925,
      "Ġspecified": 8926,
      "Ġlimitations": 8927,
      "Ġreserved": 8928,
      "fulness": 8929,
      "Ġmodule": 8930,
      "ĠFrid": 8931,
      "Ġgardens": 8932,
      "Ġcul": 8933,
      "Ġbears": 8934,
      "Ġqualities": 8935,
      "Ġsuit": 8936,
      "ocated": 8937,
      "ĠOffic": 8938,
      "Ġenthus": 8939,
      "Ġsug": 8940,
      "Ġprey": 8941,
      "ĠTown": 8942,
      "Ġposts": 8943,
      "also": 8944,
      "Ġengines": 8945,
      "Ġpel": 8946,
      "Ġcurrency": 8947,
      "mail": 8948,
      "Ġshorter": 8949,
      "Ġorigins": 8950,
      "Ġannually": 8951,
      "Ġdisplayed": 8952,
      "vation": 8953,
      "Ġvisits": 8954,
      "Ġdivine": 8955,
      "Ġjoints": 8956,
      "Ġsubsid": 8957,
      "Pub": 8958,
      "ĠMediterranean": 8959,
      "ĠNO": 8960,
      "Ġtobacco": 8961,
      "Ġdating": 8962,
      "Ġincent": 8963,
      "lected": 8964,
      "Ġcelebrate": 8965,
      "ĠPakistan": 8966,
      "Source": 8967,
      "Ġsaving": 8968,
      "Ġherself": 8969,
      "Ġchoosing": 8970,
      "Rel": 8971,
      "Ġrestore": 8972,
      "Ġdraft": 8973,
      "adelphia": 8974,
      "ĠBureau": 8975,
      "Ġscat": 8976,
      "Ġhandling": 8977,
      "ĠCommons": 8978,
      "Ġassociate": 8979,
      "Ġchurches": 8980,
      "ĠMexican": 8981,
      "Ġvolunteers": 8982,
      "Then": 8983,
      "Ġprayer": 8984,
      "ĠSeveral": 8985,
      "Ġcontrolling": 8986,
      "UL": 8987,
      "Ġcrown": 8988,
      "usive": 8989,
      "ogens": 8990,
      "Ġstreams": 8991,
      "uther": 8992,
      "Ġorange": 8993,
      "Ġwearing": 8994,
      "Ġenjoyed": 8995,
      "Ġminority": 8996,
      "Ġunlikely": 8997,
      "after": 8998,
      "ĠÂ©": 8999,
      "Ġbalanced": 9000,
      "ĠHeritage": 9001,
      "ĠConfed": 9002,
      "52": 9003,
      "obile": 9004,
      "Ġdescend": 9005,
      "outheast": 9006,
      "Ġcontents": 9007,
      "Ġrestaur": 9008,
      "Ġpartnership": 9009,
      "Ġownership": 9010,
      "izz": 9011,
      "Ġreveals": 9012,
      "Ġpurchased": 9013,
      "Ġclothes": 9014,
      "ĠVe": 9015,
      "Ġbuff": 9016,
      "section": 9017,
      "ĠID": 9018,
      "Ġmammals": 9019,
      "Ġsuicide": 9020,
      "Ġborrow": 9021,
      "ricks": 9022,
      "Ġhappiness": 9023,
      "Ġimmigrants": 9024,
      "Ġgast": 9025,
      "ĠMove": 9026,
      "ĠHum": 9027,
      "ĠNob": 9028,
      "Ġvaries": 9029,
      "ĠEncyclopedia": 9030,
      "mond": 9031,
      "Ġnom": 9032,
      "ĠJacob": 9033,
      "Ġft": 9034,
      "ouses": 9035,
      "Ġreplacement": 9036,
      "Ġassembly": 9037,
      "Ġpilot": 9038,
      "itting": 9039,
      "ĠLew": 9040,
      "Ġcertific": 9041,
      "Ġacknowled": 9042,
      "Ġgly": 9043,
      "Ġemerged": 9044,
      "ĠPu": 9045,
      "ysical": 9046,
      "Ġmeaningful": 9047,
      "Ġtongue": 9048,
      "62": 9049,
      "izers": 9050,
      "iano": 9051,
      "Ġreflected": 9052,
      "Ġassemb": 9053,
      "uity": 9054,
      "eras": 9055,
      "ifer": 9056,
      "Ġeverywhere": 9057,
      "----": 9058,
      "Ġgraduate": 9059,
      "ĠBuddha": 9060,
      "Tra": 9061,
      "ĠInvest": 9062,
      "ĠPerhaps": 9063,
      "omal": 9064,
      "ĠMuslims": 9065,
      "Ġsurprise": 9066,
      "ĠTreatment": 9067,
      "97": 9068,
      "Post": 9069,
      "Ġperf": 9070,
      "ĠVitamin": 9071,
      "books": 9072,
      "Ġeleph": 9073,
      "ĠObama": 9074,
      "Ġrestrictions": 9075,
      "BM": 9076,
      "Ġcited": 9077,
      "ĠDictionary": 9078,
      "Ġexploring": 9079,
      "Ġspacecraft": 9080,
      "Ġpaying": 9081,
      "Ġcheap": 9082,
      "Ġtrem": 9083,
      ".||": 9084,
      "friend": 9085,
      "Ġreadily": 9086,
      "Ġprox": 9087,
      "ĠBuilding": 9088,
      "ĠFil": 9089,
      "Ġgrades": 9090,
      "Ġsteam": 9091,
      "ĠAngeles": 9092,
      "Ġtu": 9093,
      "ĠAR": 9094,
      "ĠCapt": 9095,
      "Ġsciences": 9096,
      "Ġoutbreak": 9097,
      "Ã±": 9098,
      "Ġdocumented": 9099,
      "Ge": 9100,
      "Ġfilms": 9101,
      "54": 9102,
      "Ġpets": 9103,
      "Ġdil": 9104,
      "Ġshr": 9105,
      "Ġinvasive": 9106,
      "ĠContin": 9107,
      "ĠGreece": 9108,
      "Ġwal": 9109,
      "Ġauto": 9110,
      "Ġcirculation": 9111,
      "ĠHindu": 9112,
      "Ġencl": 9113,
      "Ġadvances": 9114,
      "Scient": 9115,
      "bered": 9116,
      "Ġstrange": 9117,
      "aterials": 9118,
      "ĠTurkey": 9119,
      "cin": 9120,
      "swe": 9121,
      "Ġtension": 9122,
      "ilst": 9123,
      "issipp": 9124,
      "Ġhat": 9125,
      "ĠCode": 9126,
      "oded": 9127,
      "Ġburden": 9128,
      "Ġintegr": 9129,
      "Ġsuddenly": 9130,
      "Ġinhabitants": 9131,
      "imm": 9132,
      "opl": 9133,
      "Ġunderground": 9134,
      "Ġpleasure": 9135,
      "irable": 9136,
      "!!": 9137,
      "enza": 9138,
      "Ġpace": 9139,
      "Ġreign": 9140,
      "Ġash": 9141,
      "ĠDie": 9142,
      "shaped": 9143,
      "Ġpenet": 9144,
      "ometer": 9145,
      "thod": 9146,
      "Ġvaried": 9147,
      "ĠProcess": 9148,
      "ĠMarine": 9149,
      "Ġabsorb": 9150,
      "Ġbreaks": 9151,
      "ĠCA": 9152,
      "ĠMid": 9153,
      "ĠDiet": 9154,
      "ĠFarm": 9155,
      "Ġmanual": 9156,
      "Ġrefused": 9157,
      "aven": 9158,
      "Ġfifth": 9159,
      "Ġbene": 9160,
      "Ġspecialist": 9161,
      "ador": 9162,
      "Ġworker": 9163,
      "Ġprovision": 9164,
      "neum": 9165,
      "ĠBeing": 9166,
      "Ġsuspect": 9167,
      "Ġruled": 9168,
      "Ġtherm": 9169,
      "à¥": 9170,
      "olph": 9171,
      "Ġelections": 9172,
      "Ġbarriers": 9173,
      "Ġcompetitive": 9174,
      "Ġancestors": 9175,
      "Two": 9176,
      "chnology": 9177,
      "Ġsavings": 9178,
      "Ġneurons": 9179,
      "ĠBal": 9180,
      "Ġpreserved": 9181,
      "Ġbuying": 9182,
      "Ġultimate": 9183,
      "Ġjuice": 9184,
      "power": 9185,
      "western": 9186,
      "Ġtap": 9187,
      "Ġlakes": 9188,
      "ĠAff": 9189,
      "ĠNext": 9190,
      "ĠPeace": 9191,
      "Ġcough": 9192,
      "estions": 9193,
      "Ġmaxim": 9194,
      "Ġshed": 9195,
      "igious": 9196,
      "OP": 9197,
      "Ġwise": 9198,
      "Ġcompos": 9199,
      "Ġpractition": 9200,
      "ref": 9201,
      "ĠGall": 9202,
      "host": 9203,
      "Ġalarm": 9204,
      "ĠField": 9205,
      "ĠHistorical": 9206,
      "function": 9207,
      "Ġsmell": 9208,
      ".),": 9209,
      "Ġtill": 9210,
      "ĠCreek": 9211,
      "ĠMA": 9212,
      "ĠRam": 9213,
      "ackson": 9214,
      "ĠMach": 9215,
      "Ġevolutionary": 9216,
      "Ġconversion": 9217,
      "Ġspatial": 9218,
      "ĠWeek": 9219,
      "Ġsons": 9220,
      "Ġlingu": 9221,
      "Gl": 9222,
      "Ġspecialized": 9223,
[...]
